{"vocab": {"!": 0, "\"": 1, "#": 2, "$": 3, "%": 4, "&": 5, "'": 6, "(": 7, ")": 8, "*": 9, "+": 10, ",": 11, "-": 12, ".": 13, "/": 14, "0": 15, "1": 16, "2": 17, "3": 18, "4": 19, "5": 20, "6": 21, "7": 22, "8": 23, "9": 24, ":": 25, ";": 26, "<": 27, "=": 28, ">": 29, "?": 30, "@": 31, "A": 32, "B": 33, "C": 34, "D": 35, "E": 36, "F": 37, "G": 38, "H": 39, "I": 40, "J": 41, "K": 42, "L": 43, "M": 44, "N": 45, "O": 46, "P": 47, "Q": 48, "R": 49, "S": 50, "T": 51, "U": 52, "V": 53, "W": 54, "X": 55, "Y": 56, "Z": 57, "[": 58, "\\": 59, "]": 60, "^": 61, "_": 62, "`": 63, "a": 64, "b": 65, "c": 66, "d": 67, "e": 68, "f": 69, "g": 70, "h": 71, "i": 72, "j": 73, "k": 74, "l": 75, "m": 76, "n": 77, "o": 78, "p": 79, "q": 80, "r": 81, "s": 82, "t": 83, "u": 84, "v": 85, "w": 86, "x": 87, "y": 88, "z": 89, "{": 90, "|": 91, "}": 92, "~": 93, "a1": 94, "a2": 95, "a3": 96, "a4": 97, "a5": 98, "a6": 99, "a7": 100, "a8": 101, "a9": 102, "aa": 4332, "ab": 455, "ac": 326, "ae": 8346, "af": 2792, "b0": 108, "b1": 109, "b2": 110, "b3": 111, "b4": 112, "b5": 113, "b6": 114, "b7": 115, "b8": 116, "b9": 117, "ba": 4231, "bb": 6692, "bc": 120, "bd": 121, "be": 650, "bf": 123, "c0": 124, "c1": 125, "c2": 126, "c3": 127, "c4": 128, "c5": 129, "c6": 130, "c7": 131, "c8": 132, "c9": 133, "ca": 496, "cb": 135, "cc": 1914, "cd": 137, "ce": 384, "cf": 139, "d0": 140, "d1": 141, "d2": 142, "d3": 143, "d4": 144, "d5": 145, "d6": 146, "d7": 147, "d8": 148, "d9": 149, "da": 2675, "db": 151, "dc": 152, "dd": 24810, "de": 1479, "df": 45953, "e0": 156, "e1": 157, "e2": 158, "e3": 159, "e4": 160, "e5": 161, "e6": 162, "e7": 163, "e8": 164, "e9": 165, "ea": 29791, "eb": 34727, "ec": 3045, "ed": 292, "ee": 1653, "ef": 5666, "f0": 172, "f1": 173, "f2": 174, "f3": 175, "f4": 176, "f5": 177, "f6": 178, "f7": 179, "f8": 180, "f9": 181, "fa": 11771, "fb": 183, "fc": 184, "fd": 185, "fe": 2106, "ff": 602, "\u0000": 188, "\u0001": 189, "\u0002": 190, "\u0003": 191, "\u0004": 192, "\u0005": 193, "\u0006": 194, "\u0007": 195, "\b": 196, "\t": 197, "\n": 198, "\u000b": 199, "\f": 200, "\r": 201, "\u000e": 202, "\u000f": 203, "\u0010": 204, "\u0011": 205, "\u0012": 206, "\u0013": 207, "\u0014": 208, "\u0015": 209, "\u0016": 210, "\u0017": 211, "\u0018": 212, "\u0019": 213, "\u001a": 214, "\u001b": 215, "\u001c": 216, "\u001d": 217, "\u001e": 218, "\u001f": 219, " ": 220, "": 221, "80": 4702, "81": 32875, "82": 32848, "83": 31849, "84": 25494, "85": 19287, "86": 22193, "87": 23853, "88": 16919, "89": 21115, "8a": 232, "8b": 233, "8c": 234, "8d": 235, "8e": 236, "8f": 237, "90": 7771, "91": 29925, "92": 21821, "93": 26372, "94": 27032, "95": 15718, "96": 22962, "97": 23247, "98": 22516, "99": 8494, "9a": 248, "9b": 249, "9c": 250, "9d": 251, "9e": 252, "9f": 253, "a0": 254, "ad": 345, " t": 256, " a": 257, " th": 258, "in": 259, "er": 260, " w": 261, " s": 262, "ou": 263, " the": 264, "re": 265, "on": 266, "at": 267, "en": 268, " c": 269, "it": 270, "is": 271, " b": 272, "nd": 273, " d": 274, " m": 275, " h": 276, " o": 277, "ing": 278, "es": 279, " p": 280, " to": 281, "an": 282, " f": 283, "or": 284, "ll": 285, " I": 286, " l": 287, " y": 288, "ar": 289, " g": 290, " you": 291, " and": 293, " in": 294, " of": 295, "as": 296, " n": 297, "om": 298, "ic": 299, " that": 300, "us": 301, "et": 302, "ve": 303, "al": 304, "ow": 305, "le": 306, " is": 307, " e": 308, " it": 309, "ot": 310, "'s": 311, " be": 312, "ion": 313, " T": 314, " wh": 315, " A": 316, "ent": 317, " S": 318, " re": 319, "ay": 320, " we": 321, " on": 322, "ere": 323, " ha": 324, "ut": 325, "id": 327, "ig": 328, "os": 329, "ke": 330, "ver": 331, "im": 332, "20d0": 333, " Th": 334, "am": 335, "all": 336, " for": 337, "el": 338, "ch": 339, "ro": 340, " this": 341, " st": 342, " W": 343, " u": 344, "out": 346, "ir": 347, "ld": 348, "ct": 349, " k": 350, "if": 351, " go": 352, "..": 353, "о": 354, "ith": 355, "ly": 356, "ht": 357, "qu": 358, " -": 359, " do": 360, " j": 361, " have": 362, " B": 363, " an": 364, " with": 365, " are": 366, " r": 367, " de": 368, " se": 369, " so": 370, " v": 371, "st": 372, "ill": 373, "ur": 374, " li": 375, " M": 376, "est": 377, "od": 378, "ally": 379, "'t": 380, "ust": 381, " as": 382, " C": 383, " me": 385, "а": 386, "е": 387, "il": 388, " H": 389, " was": 390, "ter": 391, "th": 392, " can": 393, "ant": 394, " com": 395, "our": 396, "ight": 397, " Y": 398, "ation": 399, " And": 400, "ol": 401, " sh": 402, "т": 403, "op": 404, "se": 405, " not": 406, " So": 407, " ne": 408, "un": 409, " ab": 410, " like": 411, " at": 412, " D": 413, "ie": 414, " he": 415, " con": 416, " ch": 417, "ore": 418, " al": 419, " or": 420, " qu": 421, " O": 422, "ome": 423, "ra": 424, "ul": 425, " N": 426, "pp": 427, " your": 428, "ould": 429, " P": 430, " fr": 431, "ge": 432, "ers": 433, "'re": 434, "и": 435, " they": 436, " what": 437, "use": 438, " all": 439, " The": 440, " L": 441, "ess": 442, "em": 443, " kn": 444, " just": 445, "art": 446, " pro": 447, "very": 448, "um": 449, " lo": 450, "20ec": 451, " my": 452, "ok": 453, " ex": 454, " there": 456, " but": 457, " know": 458, " su": 459, " G": 460, "с": 461, " E": 462, " ma": 463, "d0bed0": 464, " en": 465, " about": 466, " It": 467, "ist": 468, " wor": 469, "ri": 470, "ind": 471, " one": 472, "ate": 473, "and": 474, "ink": 475, " le": 476, "ort": 477, "'m": 478, " F": 479, "ich": 480, "р": 481, "ide": 482, " get": 483, " out": 484, "...": 485, " will": 486, "e381": 487, "ive": 488, "н": 489, " from": 490, "ain": 491, " We": 492, " up": 493, "pe": 494, "res": 495, " R": 497, " if": 498, " pl": 499, " don": 500, "ack": 501, " 1": 502, " \"": 503, " tr": 504, " us": 505, " Wh": 506, "ity": 507, " J": 508, " You": 509, " here": 510, "her": 511, " some": 512, "oug": 513, "ak": 514, "ard": 515, " going": 516, " un": 517, "ment": 518, " think": 519, " pe": 520, "end": 521, " (": 522, "cause": 523, " tim": 524, "ast": 525, "é": 526, " our": 527, " want": 528, "ame": 529, "ies": 530, "20eb": 531, "ud": 532, "ine": 533, " really": 534, " te": 535, " see": 536, "ci": 537, " by": 538, "so": 539, "ure": 540, "ose": 541, " [": 542, "are": 543, " more": 544, "ah": 545, "one": 546, "ck": 547, "ople": 548, "d0b0d0": 549, " then": 550, " thing": 551, " them": 552, "ven": 553, "ound": 554, "ost": 555, "ong": 556, "ect": 557, " right": 558, "ag": 559, " int": 560, " people": 561, " when": 562, "ous": 563, "pl": 564, " time": 565, " im": 566, " who": 567, " 2": 568, "ap": 569, " because": 570, "hing": 571, " no": 572, "ice": 573, " look": 574, " has": 575, " would": 576, " how": 577, "act": 578, " fe": 579, "nt": 580, "ough": 581, " pr": 582, " But": 583, " say": 584, "у": 585, " now": 586, " man": 587, " very": 588, " work": 589, "iz": 590, " K": 591, "iv": 592, "itt": 593, " ar": 594, "ep": 595, " cl": 596, " which": 597, " co": 598, "ans": 599, "'ve": 600, " sa": 601, "'ll": 603, " any": 604, " act": 605, " ye": 606, "ber": 607, "ach": 608, "age": 609, "per": 610, " also": 611, "fer": 612, " these": 613, " ad": 614, "d0b5d0": 615, "ther": 616, "ace": 617, "ick": 618, "ake": 619, "reat": 620, "ire": 621, "ue": 622, " ag": 623, " U": 624, "uch": 625, "ions": 626, "ry": 627, "00": 628, "na": 629, " did": 630, " que": 631, " had": 632, " every": 633, " He": 634, " la": 635, " way": 636, " sp": 637, "ble": 638, " This": 639, "ass": 640, " their": 641, "ite": 642, " need": 643, " part": 644, " were": 645, " back": 646, "ip": 647, "own": 648, "omet": 649, "ase": 651, " make": 652, "irst": 653, "ia": 654, "ence": 655, "ang": 656, "ank": 657, " got": 658, " pre": 659, " cont": 660, " other": 661, "pt": 662, " That": 663, "og": 664, " good": 665, " into": 666, "alk": 667, " been": 668, " am": 669, " over": 670, "ually": 671, "20e2": 672, "ec9d": 673, " und": 674, "he": 675, "way": 676, " gr": 677, "ь": 678, " dif": 679, " per": 680, "я": 681, " In": 682, " tw": 683, "ond": 684, "ars": 685, "int": 686, "orm": 687, " lot": 688, " where": 689, "20c3": 690, " V": 691, " somet": 692, "л": 693, "ens": 694, " gu": 695, " ac": 696, "ug": 697, "ы": 698, "ı": 699, " first": 700, "ree": 701, " his": 702, "ittle": 703, " imp": 704, " mo": 705, "av": 706, " little": 707, " What": 708, " much": 709, " z": 710, "20ea": 711, "able": 712, " п": 713, " po": 714, " comp": 715, "ne": 716, " dis": 717, " let": 718, "ance": 719, " her": 720, " things": 721, " start": 722, "ult": 723, " app": 724, " res": 725, " fo": 726, " could": 727, " inter": 728, " those": 729, " des": 730, " well": 731, " two": 732, " kind": 733, "xt": 734, "ress": 735, "ely": 736, "ä": 737, " br": 738, " thr": 739, " в": 740, " i": 741, "ish": 742, " differ": 743, " ro": 744, " St": 745, " something": 746, " take": 747, " bo": 748, "ys": 749, " she": 750, " talk": 751, "lo": 752, "ч": 753, " even": 754, "к": 755, "e380": 756, " н": 757, " bu": 758, " If": 759, " down": 760, " Ch": 761, "ade": 762, "ations": 763, " use": 764, "ord": 765, " off": 766, " actually": 767, " spe": 768, "du": 769, "ated": 770, "ater": 771, "oss": 772, "ning": 773, "ü": 774, " does": 775, " с": 776, " new": 777, " bet": 778, "vel": 779, "cess": 780, "ple": 781, " happ": 782, "ting": 783, "onna": 784, " es": 785, " day": 786, " only": 787, "ign": 788, "kay": 789, "sel": 790, "ents": 791, "ount": 792, "ild": 793, "ile": 794, " sc": 795, " him": 796, " again": 797, "ving": 798, " gonna": 799, " comm": 800, " hel": 801, "other": 802, " ke": 803, "ical": 804, " 3": 805, " el": 806, " through": 807, " come": 808, "ark": 809, "day": 810, "ier": 811, "ó": 812, " than": 813, " They": 814, " may": 815, " ser": 816, "ed95": 817, " call": 818, " different": 819, " should": 820, " There": 821, "ary": 822, " Now": 823, "e382": 824, "thing": 825, "we": 826, "ory": 827, "fter": 828, " put": 829, "ors": 830, "ial": 831, "eb8b": 832, " under": 833, " inc": 834, " Ye": 835, "ub": 836, "form": 837, " vide": 838, "e0b8": 839, "vers": 840, " feel": 841, "á": 842, "ody": 843, "ft": 844, "fore": 845, " em": 846, "get": 847, " said": 848, "ition": 849, " rec": 850, "ious": 851, "atch": 852, " try": 853, " help": 854, " show": 855, "д": 856, " bit": 857, "ull": 858, "в": 859, "то": 860, "gr": 861, " play": 862, "ife": 863, "ail": 864, " Yeah": 865, " quest": 866, " many": 867, " pers": 868, " great": 869, "í": 870, " est": 871, "ng": 872, "20e299": 873, "ty": 874, "la": 875, " Oh": 876, "20d7": 877, "e0ae": 878, " Be": 879, "ady": 880, " most": 881, "ction": 882, " No": 883, " doing": 884, " being": 885, " too": 886, "ces": 887, " bl": 888, ".\"": 889, " rem": 890, "iss": 891, "ons": 892, ">>": 893, "ru": 894, "wn": 895, "ont": 896, "ib": 897, "ell": 898, " sm": 899, "oth": 900, "ual": 901, " >>": 902, " ph": 903, "les": 904, "oc": 905, "ful": 906, " sec": 907, "ise": 908, " add": 909, "igh": 910, "ert": 911, " same": 912, "e280": 913, " mean": 914, " find": 915, "ek": 916, " end": 917, "--": 918, "м": 919, " still": 920, "az": 921, " '": 922, " min": 923, " years": 924, "urn": 925, " around": 926, "self": 927, " wr": 928, "bs": 929, "ought": 930, " ♪": 931, " fl": 932, "ange": 933, " after": 934, " point": 935, "mer": 936, "ved": 937, " long": 938, "oy": 939, "e4b8": 940, " cr": 941, "ways": 942, " sy": 943, " tra": 944, " 20": 945, "ave": 946, " che": 947, " ent": 948, " before": 949, "ph": 950, " att": 951, "ian": 952, "ily": 953, " person": 954, " big": 955, " sch": 956, " real": 957, " next": 958, " love": 959, " video": 960, " Let": 961, " fin": 962, " mak": 963, "ible": 964, " today": 965, "erm": 966, " Al": 967, "ower": 968, "ann": 969, "ix": 970, " par": 971, " stud": 972, "ö": 973, " import": 974, "te": 975, " give": 976, "ves": 977, " die": 978, " dec": 979, " tell": 980, " к": 981, "ст": 982, " why": 983, "ically": 984, "ict": 985, "red": 986, " bas": 987, " sure": 988, " bel": 989, "ating": 990, " tak": 991, " set": 992, " life": 993, " didn": 994, "ا": 995, "ob": 996, "und": 997, "ath": 998, " op": 999, " о": 1000, "ait": 1001, " world": 1002, " supp": 1003, "io": 1004, " cour": 1005, " и": 1006, "ward": 1007, "ен": 1008, " always": 1009, "up": 1010, " hand": 1011, " How": 1012, "cial": 1013, " cons": 1014, "20d1": 1015, " ind": 1016, " 4": 1017, " As": 1018, " fun": 1019, "ject": 1020, " important": 1021, " sur": 1022, "ew": 1023, "ates": 1024, " 5": 1025, " di": 1026, " made": 1027, " ins": 1028, " ask": 1029, " et": 1030, " num": 1031, " car": 1032, " Okay": 1033, " sim": 1034, "ik": 1035, " last": 1036, " Go": 1037, " mus": 1038, " rel": 1039, "ular": 1040, "b4ec": 1041, " Well": 1042, "pect": 1043, " Thank": 1044, " three": 1045, "ã": 1046, "e383": 1047, " inv": 1048, " gen": 1049, "lic": 1050, " happen": 1051, "eb8a": 1052, "ien": 1053, "ever": 1054, "ов": 1055, " str": 1056, " All": 1057, " inst": 1058, "20e280": 1059, " def": 1060, " sl": 1061, " might": 1062, "ung": 1063, " year": 1064, " own": 1065, " keep": 1066, "body": 1067, "der": 1068, " т": 1069, " д": 1070, " another": 1071, " mod": 1072, " ev": 1073, " guys": 1074, " able": 1075, "ão": 1076, "que": 1077, "ident": 1078, " Yes": 1079, " its": 1080, " place": 1081, " produ": 1082, "arn": 1083, " м": 1084, " rep": 1085, " exper": 1086, " fam": 1087, "ities": 1088, "ific": 1089, " high": 1090, "ied": 1091, "ool": 1092, "iew": 1093, "ет": 1094, "ren": 1095, " done": 1096, " ...": 1097, "는": 1098, "stem": 1099, " Se": 1100, " better": 1101, "come": 1102, " del": 1103, " ty": 1104, " um": 1105, " ho": 1106, " An": 1107, " mon": 1108, "ings": 1109, " sk": 1110, " ob": 1111, "com": 1112, "blem": 1113, "ope": 1114, "stand": 1115, "'d": 1116, "ments": 1117, " ele": 1118, " Is": 1119, " da": 1120, " reg": 1121, "lease": 1122, "ike": 1123, "als": 1124, "ize": 1125, "eab0": 1126, " care": 1127, " never": 1128, "이": 1129, "ese": 1130, " met": 1131, "olog": 1132, " When": 1133, "uck": 1134, "ер": 1135, " é": 1136, " dat": 1137, "ç": 1138, " exam": 1139, "ility": 1140, " det": 1141, "cri": 1142, " used": 1143, " Do": 1144, " trans": 1145, "eg": 1146, "ten": 1147, "ю": 1148, "cus": 1149, " second": 1150, " best": 1151, " hard": 1152, " ide": 1153, " problem": 1154, "eab3": 1155, " Un": 1156, "х": 1157, "20ce": 1158, " watch": 1159, " Sh": 1160, "atter": 1161, " pret": 1162, " der": 1163, " course": 1164, "ş": 1165, "ative": 1166, "ics": 1167, " question": 1168, "ute": 1169, "ec97": 1170, " For": 1171, "ather": 1172, " col": 1173, "iend": 1174, "20ed": 1175, " Z": 1176, " doesn": 1177, "arch": 1178, " interest": 1179, " pol": 1180, " cor": 1181, "ience": 1182, " pres": 1183, " each": 1184, " system": 1185, " fact": 1186, "iel": 1187, "ably": 1188, " er": 1189, " run": 1190, "20ec9d": 1191, " top": 1192, "ner": 1193, " thought": 1194, " eas": 1195, "ient": 1196, " cre": 1197, "ш": 1198, " commun": 1199, "ye": 1200, "ready": 1201, "llow": 1202, " everything": 1203, "omm": 1204, " med": 1205, "9a94": 1206, " count": 1207, "its": 1208, " compl": 1209, "hip": 1210, "ل": 1211, "ook": 1212, " toget": 1213, " together": 1214, "amp": 1215, " game": 1216, " already": 1217, "ал": 1218, " called": 1219, "ale": 1220, "ł": 1221, " My": 1222, " understand": 1223, " dr": 1224, " mom": 1225, "ited": 1226, "ол": 1227, " using": 1228, "zy": 1229, " number": 1230, "、": 1231, "ced": 1232, " cle": 1233, "но": 1234, "다": 1235, "ince": 1236, " looking": 1237, " pretty": 1238, " prob": 1239, " She": 1240, " ve": 1241, " getting": 1242, " week": 1243, " eff": 1244, "uff": 1245, "air": 1246, "ues": 1247, "ern": 1248, " Q": 1249, "oup": 1250, "ention": 1251, " side": 1252, "ом": 1253, " form": 1254, " bus": 1255, " ass": 1256, " ed": 1257, "ason": 1258, "ween": 1259, "…": 1260, " turn": 1261, " cur": 1262, " coll": 1263, " dire": 1264, " God": 1265, " 10": 1266, " equ": 1267, " б": 1268, " open": 1269, " such": 1270, "ird": 1271, "ак": 1272, " ear": 1273, "ę": 1274, "gan": 1275, " partic": 1276, " friend": 1277, " exp": 1278, " ext": 1279, " home": 1280, " water": 1281, " On": 1282, "ть": 1283, "ork": 1284, " пр": 1285, " move": 1286, "ness": 1287, "ense": 1288, "ho": 1289, " char": 1290, "co": 1291, "ins": 1292, " both": 1293, " 19": 1294, " gra": 1295, " between": 1296, "e1bb": 1297, "20ec95": 1298, "ash": 1299, " Re": 1300, "ai": 1301, "alth": 1302, "ures": 1303, "ember": 1304, " av": 1305, " ver": 1306, "ê": 1307, "oney": 1308, " thank": 1309, " maybe": 1310, "uc": 1311, "ime": 1312, "고": 1313, " away": 1314, " name": 1315, "ouse": 1316, " acc": 1317, " music": 1318, " change": 1319, " pass": 1320, "ger": 1321, " build": 1322, " val": 1323, "iness": 1324, "any": 1325, " few": 1326, "b4eb": 1327, "ta": 1328, " list": 1329, "å": 1330, " old": 1331, "20ec9e": 1332, " sort": 1333, " mem": 1334, " ca": 1335, "cept": 1336, " gener": 1337, " yeah": 1338, " while": 1339, " anything": 1340, "ric": 1341, "gram": 1342, " ein": 1343, "cy": 1344, "uring": 1345, " De": 1346, " power": 1347, " coming": 1348, " word": 1349, " --": 1350, " belie": 1351, " found": 1352, "to": 1353, "п": 1354, " means": 1355, " inform": 1356, "20d8": 1357, " ч": 1358, " small": 1359, "000": 1360, " came": 1361, "20ed95": 1362, "wh": 1363, " working": 1364, " example": 1365, " pos": 1366, " dep": 1367, "eab2": 1368, "e4ba": 1369, "ote": 1370, " dem": 1371, "eca7": 1372, "ts": 1373, " var": 1374, "aut": 1375, " tri": 1376, "chn": 1377, " head": 1378, " whole": 1379, "י": 1380, "ze": 1381, " trying": 1382, " tem": 1383, " cou": 1384, "ets": 1385, " 6": 1386, " fil": 1387, "velop": 1388, " case": 1389, "e0af": 1390, " probably": 1391, " okay": 1392, " plan": 1393, " sit": 1394, " school": 1395, " Then": 1396, "b8eb": 1397, "me": 1398, " process": 1399, " far": 1400, " read": 1401, " poss": 1402, " bre": 1403, " sol": 1404, "icht": 1405, " support": 1406, " To": 1407, "ertain": 1408, " started": 1409, " cap": 1410, " left": 1411, " data": 1412, " times": 1413, "ел": 1414, " wanted": 1415, "ан": 1416, " talking": 1417, " ist": 1418, " having": 1419, "ump": 1420, " contin": 1421, " sub": 1422, " з": 1423, "pr": 1424, "니": 1425, "ina": 1426, "ż": 1427, " creat": 1428, "ode": 1429, "ו": 1430, "e698": 1431, "!!": 1432, " term": 1433, "ism": 1434, "од": 1435, " Because": 1436, " went": 1437, "ider": 1438, " prov": 1439, " child": 1440, " den": 1441, " light": 1442, "br": 1443, "b3d0be": 1444, "oh": 1445, " book": 1446, "20d9": 1447, "ution": 1448, " Just": 1449, "ene": 1450, " four": 1451, " vis": 1452, "가": 1453, " hope": 1454, " making": 1455, " Le": 1456, "ec95": 1457, " opp": 1458, "au": 1459, " money": 1460, " program": 1461, "è": 1462, " stand": 1463, "IN": 1464, " sign": 1465, " learn": 1466, "à": 1467, " Don": 1468, " team": 1469, " на": 1470, "lud": 1471, " rest": 1472, "ices": 1473, "e69c": 1474, " р": 1475, " aut": 1476, " lead": 1477, "ational": 1478, "gy": 1480, " nice": 1481, " das": 1482, " dist": 1483, " hum": 1484, " One": 1485, "e688": 1486, " comes": 1487, " jo": 1488, " cent": 1489, " expl": 1490, " mark": 1491, "reen": 1492, "led": 1493, "gin": 1494, "요": 1495, " level": 1496, " conf": 1497, "ush": 1498, " develop": 1499, " test": 1500, "eng": 1501, "vious": 1502, "ature": 1503, "ем": 1504, "ret": 1505, " je": 1506, " stuff": 1507, " class": 1508, "ows": 1509, "20eab7": 1510, " si": 1511, " les": 1512, "rop": 1513, "e79a": 1514, " por": 1515, " war": 1516, "에": 1517, " everyone": 1518, " ge": 1519, " check": 1520, "ott": 1521, " sing": 1522, " art": 1523, " follow": 1524, " 201": 1525, " Fr": 1526, "ais": 1527, "ec96": 1528, "α": 1529, "e5b0": 1530, " à": 1531, "imes": 1532, " ret": 1533, " chang": 1534, " pub": 1535, " inf": 1536, " techn": 1537, "ada": 1538, "ives": 1539, " beh": 1540, "是": 1541, " looks": 1542, "。": 1543, "з": 1544, " Why": 1545, "的": 1546, " enough": 1547, " bra": 1548, "itch": 1549, "e4bb": 1550, " adv": 1551, "б": 1552, " without": 1553, "wer": 1554, "meric": 1555, "den": 1556, " complet": 1557, " idea": 1558, "ters": 1559, "ock": 1560, " defin": 1561, " ever": 1562, " gl": 1563, " once": 1564, " bring": 1565, " saying": 1566, " ans": 1567, " hear": 1568, "nect": 1569, " less": 1570, "go": 1571, "ream": 1572, "ado": 1573, "ec9e": 1574, " mind": 1575, "ente": 1576, " full": 1577, " bad": 1578, " wom": 1579, " someone": 1580, " du": 1581, " won": 1582, " contro": 1583, "ortun": 1584, " health": 1585, " cho": 1586, " Ar": 1587, " conc": 1588, " information": 1589, " stop": 1590, "att": 1591, "ately": 1592, "e4bd": 1593, " group": 1594, " у": 1595, " quite": 1596, " resp": 1597, "ER": 1598, "ught": 1599, "eab8": 1600, "man": 1601, "ized": 1602, " Br": 1603, " remember": 1604, " family": 1605, " business": 1606, "aw": 1607, " spec": 1608, " au": 1609, " Or": 1610, "ą": 1611, " seen": 1612, " lar": 1613, " 7": 1614, "gg": 1615, "bers": 1616, " dra": 1617, " month": 1618, " says": 1619, " iss": 1620, " live": 1621, " line": 1622, " moment": 1623, " exc": 1624, "els": 1625, " sound": 1626, " cool": 1627, " loc": 1628, " certain": 1629, " dri": 1630, "от": 1631, "ames": 1632, " must": 1633, "ny": 1634, "ит": 1635, " kid": 1636, " includ": 1637, "을": 1638, "ator": 1639, "ğ": 1640, "ha": 1641, "ared": 1642, " seem": 1643, "й": 1644, "ec84": 1645, " else": 1646, "20eca0": 1647, "irl": 1648, " 8": 1649, " vo": 1650, " questions": 1651, "ines": 1652, "我": 1654, "ür": 1655, " Americ": 1656, " story": 1657, " serv": 1658, "vern": 1659, "ages": 1660, "land": 1661, " –": 1662, "era": 1663, " Can": 1664, " pop": 1665, "ether": 1666, " na": 1667, " order": 1668, " makes": 1669, " since": 1670, "con": 1671, "ctor": 1672, " though": 1673, " product": 1674, "ли": 1675, " leg": 1676, " meet": 1677, "alf": 1678, "ся": 1679, "unch": 1680, "iter": 1681, "ove": 1682, "d795d7": 1683, "iet": 1684, "ам": 1685, "ital": 1686, " super": 1687, "ling": 1688, " pay": 1689, " para": 1690, " job": 1691, " Here": 1692, " sw": 1693, "ks": 1694, "ption": 1695, "ma": 1696, " believe": 1697, "aceb": 1698, " wait": 1699, "ой": 1700, " unt": 1701, " quick": 1702, "hr": 1703, " э": 1704, " Pro": 1705, " men": 1706, "e0b9": 1707, " days": 1708, " goes": 1709, " speak": 1710, " At": 1711, "ement": 1712, " miss": 1713, " aw": 1714, " design": 1715, " project": 1716, "ор": 1717, "ij": 1718, "ants": 1719, "ats": 1720, " Chr": 1721, " 9": 1722, " cut": 1723, " requ": 1724, " не": 1725, " Not": 1726, "aster": 1727, " mill": 1728, " particular": 1729, " pie": 1730, " students": 1731, " five": 1732, "oun": 1733, " Ne": 1734, " gi": 1735, " pas": 1736, " free": 1737, " Sp": 1738, "lich": 1739, " prof": 1740, " eng": 1741, " prot": 1742, " Like": 1743, "osed": 1744, " connect": 1745, "app": 1746, "20eba7": 1747, "iting": 1748, " blo": 1749, " los": 1750, "ists": 1751, " experience": 1752, "rent": 1753, " stay": 1754, " food": 1755, "ton": 1756, "ruct": 1757, " hist": 1758, "view": 1759, "ining": 1760, "most": 1761, "ivers": 1762, "bo": 1763, "い": 1764, " Tr": 1765, "gen": 1766, " please": 1767, " community": 1768, " ce": 1769, "AN": 1770, "no": 1771, " body": 1772, " hour": 1773, " vers": 1774, "e1ba": 1775, "cer": 1776, "20eab0": 1777, " reason": 1778, " Right": 1779, " later": 1780, "τ": 1781, " house": 1782, " X": 1783, "он": 1784, " state": 1785, "fic": 1786, "e5a4": 1787, "ś": 1788, "ield": 1789, " pri": 1790, " past": 1791, " walk": 1792, "ology": 1793, "ering": 1794, "anna": 1795, " ter": 1796, " hold": 1797, " organ": 1798, "ben": 1799, "ο": 1800, "ón": 1801, " effect": 1802, " yourself": 1803, " plus": 1804, "aj": 1805, "ando": 1806, "ural": 1807, " room": 1808, "lect": 1809, "게": 1810, "?\"": 1811, "side": 1812, " become": 1813, "ц": 1814, "20c2": 1815, "ood": 1816, " const": 1817, " night": 1818, "utes": 1819, "ж": 1820, " break": 1821, " pain": 1822, " step": 1823, "ired": 1824, " nothing": 1825, " until": 1826, "і": 1827, "ав": 1828, "ي": 1829, " during": 1830, "지": 1831, "less": 1832, "oll": 1833, "ны": 1834, "ι": 1835, "fect": 1836, "iver": 1837, "8f84": 1838, "ither": 1839, "ying": 1840, " begin": 1841, "d799d7": 1842, "ivid": 1843, " ç": 1844, " sal": 1845, " ta": 1846, " pot": 1847, " $": 1848, " mar": 1849, " clear": 1850, " face": 1851, " grow": 1852, " *": 1853, " inside": 1854, " friends": 1855, " leave": 1856, "enn": 1857, " easy": 1858, " area": 1859, "ality": 1860, "oud": 1861, " eat": 1862, "ن": 1863, " pur": 1864, "orn": 1865, " saw": 1866, " answer": 1867, " front": 1868, " beaut": 1869, "bceb": 1870, " matter": 1871, " son": 1872, " New": 1873, " result": 1874, "ides": 1875, "che": 1876, " fut": 1877, "ps": 1878, " focus": 1879, " interesting": 1880, "e5a5": 1881, " ap": 1882, "\".": 1883, " create": 1884, "ос": 1885, " press": 1886, "ross": 1887, " pick": 1888, "line": 1889, " took": 1890, " May": 1891, "row": 1892, " ich": 1893, "98eb": 1894, " ref": 1895, " mor": 1896, "ract": 1897, "arent": 1898, "AR": 1899, " exact": 1900, " space": 1901, "work": 1902, "ни": 1903, " bir": 1904, " dev": 1905, "г": 1906, " told": 1907, " public": 1908, "cially": 1909, " view": 1910, " Hey": 1911, "med": 1912, "llo": 1913, " fac": 1915, " couple": 1916, " heart": 1917, "ler": 1918, " ready": 1919, " almost": 1920, "aring": 1921, " half": 1922, " Me": 1923, "avor": 1924, "ique": 1925, " charac": 1926, " pract": 1927, "ON": 1928, "ane": 1929, " il": 1930, "на": 1931, " vi": 1932, "lish": 1933, "head": 1934, " least": 1935, " basically": 1936, "ased": 1937, "right": 1938, " yet": 1939, " taking": 1940, " country": 1941, " win": 1942, " isn": 1943, " possible": 1944, " cam": 1945, " incre": 1946, " pat": 1947, " wanna": 1948, " consider": 1949, " abs": 1950, " within": 1951, " human": 1952, " thinking": 1953, " oh": 1954, "a19c": 1955, " qui": 1956, "ases": 1957, " 0": 1958, "itely": 1959, "不": 1960, " kill": 1961, " mil": 1962, " invest": 1963, "ister": 1964, " suc": 1965, "ional": 1966, "elf": 1967, " whether": 1968, " control": 1969, " against": 1970, "ots": 1971, "니다": 1972, "ior": 1973, " present": 1974, " ا": 1975, " watching": 1976, "ube": 1977, "erv": 1978, " nicht": 1979, " govern": 1980, " These": 1981, " :": 1982, "uit": 1983, "ugh": 1984, " works": 1985, "oo": 1986, " wir": 1987, " air": 1988, " Te": 1989, "аз": 1990, "ision": 1991, "where": 1992, " tot": 1993, "joy": 1994, "ec8b": 1995, " vol": 1996, " е": 1997, " close": 1998, " Ad": 1999, "щ": 2000, "ined": 2001, " una": 2002, "20eab7b8eb": 2003, "b0eb": 2004, "orry": 2005, " bro": 2006, " film": 2007, "ift": 2008, "20": 2009, " type": 2010, " happened": 2011, " Am": 2012, " girl": 2013, " Are": 2014, "wards": 2015, " pour": 2016, " color": 2017, "elt": 2018, "ас": 2019, " sense": 2020, "lex": 2021, " With": 2022, "uss": 2023, "rib": 2024, " rese": 2025, " norm": 2026, " future": 2027, " deal": 2028, "ending": 2029, "ey": 2030, " x": 2031, "ero": 2032, " Cl": 2033, "uk": 2034, " whatever": 2035, "selves": 2036, " young": 2037, "ec8a": 2038, " Mar": 2039, " Christ": 2040, " guess": 2041, " perform": 2042, " ener": 2043, "ron": 2044, " hit": 2045, " wond": 2046, " direct": 2047, " Every": 2048, " often": 2049, " fa": 2050, " along": 2051, " click": 2052, " Look": 2053, " situ": 2054, " happy": 2055, "ead": 2056, " ago": 2057, " enc": 2058, " myself": 2059, " cover": 2060, "об": 2061, " mid": 2062, " cost": 2063, " ten": 2064, " Sch": 2065, " expect": 2066, " wasn": 2067, " strong": 2068, "iful": 2069, " opportun": 2070, "inal": 2071, "yle": 2072, " share": 2073, " true": 2074, " appro": 2075, " chall": 2076, " minutes": 2077, " chann": 2078, "20eb82": 2079, "ε": 2080, "li": 2081, " mess": 2082, "ories": 2083, "pecially": 2084, " wrong": 2085, " yes": 2086, "20ec97": 2087, "iron": 2088, " allow": 2089, " subs": 2090, " fore": 2091, " fight": 2092, " social": 2093, " cra": 2094, "ana": 2095, " aff": 2096, " ess": 2097, " ways": 2098, " short": 2099, " fall": 2100, " law": 2101, " Who": 2102, " enjoy": 2103, " cal": 2104, " access": 2105, " non": 2107, " across": 2108, "ery": 2109, "viously": 2110, " Ex": 2111, "ided": 2112, " link": 2113, " Pr": 2114, " terms": 2115, "aces": 2116, " land": 2117, "azing": 2118, " 15": 2119, " mult": 2120, " special": 2121, "e580": 2122, "iving": 2123, "은": 2124, " typ": 2125, " ste": 2126, "20c4": 2127, " forward": 2128, "e58f": 2129, " fre": 2130, "好": 2131, " research": 2132, "்": 2133, "ат": 2134, " main": 2135, " record": 2136, " hu": 2137, " definitely": 2138, " either": 2139, " listen": 2140, " key": 2141, " market": 2142, " что": 2143, "ization": 2144, " videos": 2145, " guy": 2146, " fig": 2147, " stra": 2148, " Pl": 2149, "ully": 2150, "amos": 2151, " mention": 2152, " song": 2153, " intern": 2154, "ral": 2155, "urs": 2156, " hon": 2157, " value": 2158, " bar": 2159, "cle": 2160, "ож": 2161, "ć": 2162, "9ceb": 2163, " zu": 2164, "им": 2165, "你": 2166, " single": 2167, " auch": 2168, "cuss": 2169, " gets": 2170, " sometimes": 2171, "e5be": 2172, "amb": 2173, "mm": 2174, "cing": 2175, " perfect": 2176, " Bl": 2177, "outh": 2178, "eca0": 2179, " sci": 2180, "par": 2181, " red": 2182, " post": 2183, " mot": 2184, " elect": 2185, " Eu": 2186, "itive": 2187, " Some": 2188, " descri": 2189, " current": 2190, "és": 2191, " tre": 2192, " En": 2193, " mit": 2194, "EN": 2195, "88eb": 2196, "ium": 2197, " heard": 2198, " simple": 2199, "lar": 2200, " everybody": 2201, "ilar": 2202, " needs": 2203, " diffic": 2204, " Good": 2205, "ument": 2206, "cent": 2207, " oper": 2208, "ать": 2209, "ety": 2210, " black": 2211, " given": 2212, "ones": 2213, " wel": 2214, "e980": 2215, " 아": 2216, " 30": 2217, "AT": 2218, " stat": 2219, "ouch": 2220, " Mr": 2221, "ар": 2222, " sho": 2223, " cond": 2224, "ה": 2225, "my": 2226, " children": 2227, " eu": 2228, "ед": 2229, "아": 2230, "tern": 2231, " uh": 2232, " har": 2233, " prom": 2234, " pull": 2235, "rew": 2236, " company": 2237, " beautiful": 2238, "ustom": 2239, "하": 2240, "ки": 2241, " stre": 2242, " amazing": 2243, "ries": 2244, " success": 2245, " mach": 2246, "not": 2247, " discuss": 2248, " nat": 2249, "a6ac": 2250, " une": 2251, " difficult": 2252, " ris": 2253, "ν": 2254, " camp": 2255, " buy": 2256, "一": 2257, " mag": 2258, "po": 2259, " Your": 2260, " behind": 2261, "ica": 2262, "ın": 2263, " OK": 2264, " lang": 2265, " women": 2266, " env": 2267, " rece": 2268, " channel": 2269, "ially": 2270, "ule": 2271, " 12": 2272, "thers": 2273, " bott": 2274, " report": 2275, "ently": 2276, "fully": 2277, "The": 2278, " sent": 2279, " event": 2280, " energy": 2281, "lt": 2282, " words": 2283, "arr": 2284, "dle": 2285, " ahead": 2286, "ards": 2287, "ر": 2288, "了": 2289, " tool": 2290, "conom": 2291, "ес": 2292, " exactly": 2293, " favor": 2294, " low": 2295, " proper": 2296, " 있": 2297, " !": 2298, " relations": 2299, " mas": 2300, " kids": 2301, " entire": 2302, "ude": 2303, "م": 2304, " Where": 2305, " ones": 2306, " city": 2307, "olut": 2308, " six": 2309, "ability": 2310, "ör": 2311, "ili": 2312, " Es": 2313, " happens": 2314, "ains": 2315, " model": 2316, " pict": 2317, " especially": 2318, " 100": 2319, "kt": 2320, " soon": 2321, "by": 2322, "rodu": 2323, " ann": 2324, " subscri": 2325, " Qu": 2326, " avail": 2327, "iment": 2328, " voc": 2329, "ka": 2330, " 200": 2331, "aper": 2332, " Ind": 2333, "20eca7": 2334, "hor": 2335, "8db0": 2336, "jor": 2337, "ил": 2338, " squ": 2339, "AU": 2340, "arning": 2341, " г": 2342, "IS": 2343, " л": 2344, "ей": 2345, "yes": 2346, "e585": 2347, " В": 2348, " orig": 2349, "ого": 2350, " asked": 2351, "ilt": 2352, "ог": 2353, " continue": 2354, "20ec98": 2355, "ram": 2356, " others": 2357, "ES": 2358, "ohn": 2359, " lay": 2360, " based": 2361, " pu": 2362, " appe": 2363, " lim": 2364, " prop": 2365, "80eb": 2366, "min": 2367, " hot": 2368, " La": 2369, " fast": 2370, " protect": 2371, " amount": 2372, " aqu": 2373, " fund": 2374, " custom": 2375, " cult": 2376, " hands": 2377, " haven": 2378, " aud": 2379, " outside": 2380, " After": 2381, "aps": 2382, " anim": 2383, "ploy": 2384, " hat": 2385, " First": 2386, " treat": 2387, " ep": 2388, " mater": 2389, " building": 2390, "20ebb0": 2391, "e590": 2392, "서": 2393, "za": 2394, "ughter": 2395, " Pe": 2396, "ney": 2397, "eter": 2398, "atic": 2399, " educ": 2400, "기": 2401, " mov": 2402, "93a4": 2403, "ama": 2404, "ration": 2405, " sn": 2406, "و": 2407, " sum": 2408, " phot": 2409, " Н": 2410, " .": 2411, "有": 2412, " finish": 2413, "itting": 2414, "e5ae": 2415, " large": 2416, "20ec96": 2417, " white": 2418, "ara": 2419, " mais": 2420, " Hi": 2421, " dam": 2422, " ال": 2423, " box": 2424, " Hello": 2425, " sle": 2426, " opt": 2427, "ried": 2428, "a5bc": 2429, " activ": 2430, " não": 2431, " Com": 2432, " playing": 2433, "Th": 2434, " available": 2435, " port": 2436, "e588": 2437, " Ah": 2438, " las": 2439, " early": 2440, " wonder": 2441, "b1b0": 2442, " 18": 2443, "cul": 2444, " function": 2445, " morning": 2446, "lle": 2447, "ients": 2448, "ux": 2449, " cir": 2450, "itions": 2451, " deep": 2452, " polit": 2453, "yor": 2454, "mp": 2455, "aking": 2456, "8ceb": 2457, " Man": 2458, " million": 2459, " /": 2460, " individ": 2461, " pan": 2462, " government": 2463, " write": 2464, " Tod": 2465, "ament": 2466, "20cf": 2467, " wind": 2468, " Eng": 2469, "chen": 2470, "Wh": 2471, "ec9c": 2472, " ident": 2473, "で": 2474, "vent": 2475, "urch": 2476, " hy": 2477, " ya": 2478, " trad": 2479, " relationship": 2480, "ú": 2481, " dou": 2482, "OR": 2483, " swe": 2484, " neg": 2485, "ination": 2486, " text": 2487, "ipp": 2488, " fine": 2489, "ás": 2490, " Dr": 2491, " Come": 2492, " months": 2493, ",\"": 2494, "ени": 2495, " hours": 2496, " pod": 2497, "irt": 2498, " invol": 2499, " collect": 2500, " auf": 2501, " pa": 2502, " history": 2503, "mb": 2504, "ify": 2505, " ?": 2506, " below": 2507, "asure": 2508, "aby": 2509, " langu": 2510, " ant": 2511, " comb": 2512, "ato": 2513, " exist": 2514, "20eb8b": 2515, " takes": 2516, " character": 2517, "aff": 2518, " field": 2519, " econom": 2520, "ief": 2521, " piece": 2522, "e59c": 2523, " reach": 2524, "20eab2": 2525, "ony": 2526, " material": 2527, " dig": 2528, " phys": 2529, " impro": 2530, " similar": 2531, "IC": 2532, " net": 2533, "yn": 2534, " position": 2535, "ß": 2536, " bene": 2537, "read": 2538, " learning": 2539, "ume": 2540, " clean": 2541, "тор": 2542, " cook": 2543, " seems": 2544, " ol": 2545, " US": 2546, " Jes": 2547, "20e0ae": 2548, "ential": 2549, "iversity": 2550, "acy": 2551, " я": 2552, "olutely": 2553, "rect": 2554, " Please": 2555, " repres": 2556, " touch": 2557, "men": 2558, " а": 2559, "ión": 2560, " Thanks": 2561, " ang": 2562, " major": 2563, " itself": 2564, "ills": 2565, "\",": 2566, "ians": 2567, " screen": 2568, " hor": 2569, " known": 2570, " environ": 2571, " final": 2572, " figure": 2573, " Tw": 2574, " eyes": 2575, " imag": 2576, " seeing": 2577, " hair": 2578, "rem": 2579, " applic": 2580, "ends": 2581, "put": 2582, " news": 2583, " completely": 2584, "ughs": 2585, " knew": 2586, "ified": 2587, " Je": 2588, " Did": 2589, " situation": 2590, " flo": 2591, "ms": 2592, " phone": 2593, " ball": 2594, "do": 2595, " parent": 2596, " sorry": 2597, "ury": 2598, "ин": 2599, "ips": 2600, "ад": 2601, " instead": 2602, " huge": 2603, " tu": 2604, "20e381": 2605, " Gr": 2606, " detail": 2607, " П": 2608, " individual": 2609, " fire": 2610, " clos": 2611, " wer": 2612, "une": 2613, " running": 2614, " convers": 2615, " recomm": 2616, " como": 2617, " somebody": 2618, " John": 2619, " 이": 2620, " Our": 2621, "ples": 2622, " Ph": 2623, " anal": 2624, " 50": 2625, " offer": 2626, " <": 2627, "itional": 2628, "gest": 2629, " vous": 2630, "let": 2631, "icy": 2632, " feeling": 2633, "LE": 2634, "ros": 2635, " third": 2636, "ок": 2637, " series": 2638, " Any": 2639, "ised": 2640, "old": 2641, " draw": 2642, " service": 2643, " cannot": 2644, "bal": 2645, "う": 2646, " living": 2647, "ım": 2648, " difference": 2649, " opportunity": 2650, " near": 2651, "orth": 2652, "ken": 2653, " local": 2654, "ت": 2655, " Con": 2656, " object": 2657, " dass": 2658, "す": 2659, "90d7": 2660, " quickly": 2661, "raph": 2662, " issues": 2663, "這": 2664, " American": 2665, " prep": 2666, "ences": 2667, " profess": 2668, "lling": 2669, "of": 2670, " foot": 2671, "bre": 2672, " usually": 2673, " general": 2674, "ances": 2676, " dest": 2677, " occ": 2678, " members": 2679, " dans": 2680, " equal": 2681, "zt": 2682, " becom": 2683, " moving": 2684, " specific": 2685, "ía": 2686, " fur": 2687, " necess": 2688, " common": 2689, " attack": 2690, " это": 2691, " Today": 2692, " uns": 2693, " Gu": 2694, "iod": 2695, " account": 2696, " grand": 2697, " self": 2698, " El": 2699, " tast": 2700, " content": 2701, " cu": 2702, "84eb": 2703, " Maybe": 2704, " Jesus": 2705, "ores": 2706, "port": 2707, "a9b4": 2708, " gives": 2709, " normal": 2710, "ру": 2711, " impact": 2712, "är": 2713, " dies": 2714, " lab": 2715, "sh": 2716, "ios": 2717, " Pres": 2718, " Und": 2719, " Of": 2720, " finally": 2721, " doll": 2722, " você": 2723, "ply": 2724, " Ag": 2725, " taken": 2726, " ground": 2727, "fort": 2728, " gave": 2729, " Inst": 2730, " lost": 2731, " worked": 2732, " liter": 2733, " issue": 2734, " indust": 2735, " return": 2736, " happening": 2737, " wants": 2738, "ив": 2739, " problems": 2740, " Car": 2741, "9dbc": 2742, " Also": 2743, " size": 2744, " obviously": 2745, " Su": 2746, " Sc": 2747, " recommend": 2748, "ources": 2749, "astic": 2750, "....": 2751, " mi": 2752, "lier": 2753, " Even": 2754, "cia": 2755, " hur": 2756, "va": 2757, " mass": 2758, " wouldn": 2759, "unt": 2760, "cks": 2761, " felt": 2762, "osp": 2763, "light": 2764, "оль": 2765, "nie": 2766, " bottom": 2767, " бы": 2768, "ored": 2769, "ison": 2770, " grad": 2771, " uma": 2772, " va": 2773, "20ec82": 2774, "ression": 2775, "ulation": 2776, "ID": 2777, "idence": 2778, " bur": 2779, " gone": 2780, "lu": 2781, "ec96b4ec": 2782, " redu": 2783, " ja": 2784, "의": 2785, "ita": 2786, " soft": 2787, " ça": 2788, "ico": 2789, "eral": 2790, "ñ": 2791, " points": 2793, "gu": 2794, " dé": 2795, "apt": 2796, "ax": 2797, " Alright": 2798, " camera": 2799, " ach": 2800, " по": 2801, " sever": 2802, "50": 2803, " sie": 2804, "ρ": 2805, " mal": 2806, " comput": 2807, " middle": 2808, " couldn": 2809, "ming": 2810, "20ec8b": 2811, " His": 2812, " games": 2813, " introdu": 2814, " cell": 2815, "por": 2816, " sleep": 2817, "20ebb3": 2818, "iding": 2819, " ou": 2820, " deg": 2821, " drink": 2822, " environment": 2823, " United": 2824, " talked": 2825, " choose": 2826, " jour": 2827, "ege": 2828, " Min": 2829, " inte": 2830, " rather": 2831, " offic": 2832, "ка": 2833, "aching": 2834, " mentioned": 2835, " fill": 2836, " track": 2837, " nie": 2838, " ut": 2839, " вы": 2840, "ibility": 2841, " vac": 2842, " rad": 2843, " pack": 2844, " send": 2845, " Das": 2846, " Ab": 2847, " engine": 2848, "し": 2849, " compet": 2850, "ô": 2851, " вс": 2852, " door": 2853, " longer": 2854, "對": 2855, " language": 2856, " extra": 2857, "play": 2858, " webs": 2859, "umb": 2860, "room": 2861, "e79c": 2862, " beginning": 2863, " refer": 2864, "AM": 2865, "nen": 2866, "igher": 2867, "face": 2868, "erc": 2869, " forget": 2870, " comment": 2871, "ек": 2872, "ля": 2873, "ror": 2874, "że": 2875, " Ge": 2876, " dark": 2877, " anyone": 2878, "ante": 2879, "ges": 2880, "습": 2881, "ё": 2882, "bed": 2883, "je": 2884, "ructure": 2885, " prim": 2886, "ida": 2887, "e8a6": 2888, "ま": 2889, " mix": 2890, " starting": 2891, "20ec9db4eb": 2892, " provide": 2893, "action": 2894, " mother": 2895, " period": 2896, " stick": 2897, " YouT": 2898, " technology": 2899, "eab9": 2900, " bed": 2901, " giving": 2902, " explain": 2903, "zen": 2904, "imate": 2905, " represent": 2906, "load": 2907, " However": 2908, " lives": 2909, "uth": 2910, "irit": 2911, "ogn": 2912, " lik": 2913, " respons": 2914, " priv": 2915, " tom": 2916, "ção": 2917, "iam": 2918, " excited": 2919, " card": 2920, "ground": 2921, " ה": 2922, " sens": 2923, " teach": 2924, "ido": 2925, "hod": 2926, " epis": 2927, " welcome": 2928, " wall": 2929, "e4b9": 2930, " chance": 2931, "hen": 2932, " С": 2933, " đ": 2934, " simply": 2935, " так": 2936, "ring": 2937, "ja": 2938, "book": 2939, " several": 2940, "ste": 2941, " created": 2942, " от": 2943, " push": 2944, "==": 2945, " higher": 2946, "uf": 2947, "ource": 2948, "oke": 2949, " online": 2950, " rele": 2951, " ton": 2952, "ensive": 2953, " favorite": 2954, "уд": 2955, " looked": 2956, " von": 2957, "—": 2958, " für": 2959, " button": 2960, " bill": 2961, " changes": 2962, "!\"": 2963, " slow": 2964, "ables": 2965, " death": 2966, "ands": 2967, "ateg": 2968, " themselves": 2969, "っ": 2970, " cop": 2971, "の": 2972, " personal": 2973, "ughing": 2974, " 11": 2975, "gar": 2976, "ades": 2977, " needed": 2978, " study": 2979, "aged": 2980, "ств": 2981, "ino": 2982, " disc": 2983, "ki": 2984, " address": 2985, "ר": 2986, "itten": 2987, "esome": 2988, " ж": 2989, "a4eb": 2990, "ura": 2991, " mu": 2992, " continu": 2993, "for": 2994, " match": 2995, "て": 2996, " straight": 2997, "90eb": 2998, "ners": 2999, " dog": 3000, " deb": 3001, " CO": 3002, " os": 3003, "ged": 3004, "came": 3005, " correct": 3006, "ette": 3007, " See": 3008, " including": 3009, " Euro": 3010, "ester": 3011, " jump": 3012, " Which": 3013, " как": 3014, "son": 3015, "ya": 3016, "ING": 3017, " eine": 3018, "osh": 3019, "ency": 3020, " media": 3021, " subscribe": 3022, "e982": 3023, " prin": 3024, " hab": 3025, " Per": 3026, " Was": 3027, " page": 3028, "itor": 3029, " towards": 3030, " tried": 3031, "enge": 3032, "artment": 3033, " vari": 3034, " paper": 3035, " picture": 3036, " version": 3037, " brought": 3038, "ware": 3039, " States": 3040, " sich": 3041, "ledge": 3042, " percent": 3043, " god": 3044, " Comm": 3046, " decided": 3047, " select": 3048, "한": 3049, ").": 3050, "urity": 3051, " further": 3052, " comments": 3053, "lement": 3054, " dream": 3055, " center": 3056, "mi": 3057, " cas": 3058, " woman": 3059, " road": 3060, " fail": 3061, " became": 3062, "lus": 3063, "ilities": 3064, "は": 3065, " Co": 3066, " manage": 3067, " recogn": 3068, " action": 3069, " benef": 3070, " earlier": 3071, "ל": 3072, " speed": 3073, " ment": 3074, " soci": 3075, " shoot": 3076, "ui": 3077, " ä": 3078, " apply": 3079, "vo": 3080, "xim": 3081, " cause": 3082, " surpr": 3083, " haben": 3084, "DI": 3085, " father": 3086, " Next": 3087, " YouTube": 3088, " code": 3089, " role": 3090, "gress": 3091, " green": 3092, "ett": 3093, " built": 3094, " flow": 3095, " base": 3096, " training": 3097, " round": 3098, " Will": 3099, " path": 3100, " Ro": 3101, " interested": 3102, "어": 3103, " respect": 3104, " changed": 3105, "ission": 3106, " student": 3107, "ograph": 3108, " approach": 3109, " shows": 3110, "就": 3111, " tar": 3112, " crit": 3113, " glo": 3114, "습니다": 3115, " dead": 3116, " President": 3117, " thous": 3118, " bal": 3119, "ster": 3120, "ex": 3121, " absolutely": 3122, " mic": 3123, " practice": 3124, " quality": 3125, " lower": 3126, "ogle": 3127, " separ": 3128, "ball": 3129, "medi": 3130, " review": 3131, " App": 3132, " ok": 3133, "​": 3134, " experien": 3135, " concern": 3136, "entially": 3137, "more": 3138, " Jo": 3139, "apan": 3140, " Ich": 3141, "istic": 3142, " fair": 3143, " website": 3144, "ires": 3145, " By": 3146, " travel": 3147, " risk": 3148, " mir": 3149, " board": 3150, " sen": 3151, " parents": 3152, " Wow": 3153, " feed": 3154, " save": 3155, " serious": 3156, " init": 3157, "EL": 3158, "undred": 3159, "AS": 3160, " van": 3161, "orrow": 3162, " worth": 3163, " search": 3164, " 16": 3165, " parts": 3166, "сть": 3167, " compan": 3168, " movie": 3169, " method": 3170, " ill": 3171, " wish": 3172, "dy": 3173, " item": 3174, " minus": 3175, "anger": 3176, " voice": 3177, " skin": 3178, " areas": 3179, " eight": 3180, " obs": 3181, " ,": 3182, "ай": 3183, " oil": 3184, " cy": 3185, " baby": 3186, "sy": 3187, " employ": 3188, " Ke": 3189, " places": 3190, " fix": 3191, " está": 3192, "と": 3193, "ived": 3194, " lots": 3195, " season": 3196, "unk": 3197, "alt": 3198, " table": 3199, " Т": 3200, "â": 3201, " attention": 3202, "な": 3203, " Her": 3204, " age": 3205, " pra": 3206, "back": 3207, "cil": 3208, " network": 3209, "rit": 3210, " doc": 3211, " aren": 3212, "igen": 3213, "20eb84": 3214, "د": 3215, "ender": 3216, " total": 3217, " price": 3218, " crazy": 3219, "ec9a": 3220, "iqu": 3221, "though": 3222, "You": 3223, "ه": 3224, "ん": 3225, "υ": 3226, " sat": 3227, " bi": 3228, " Die": 3229, " sha": 3230, " thanks": 3231, "uh": 3232, " stage": 3233, "аж": 3234, " Fl": 3235, " leav": 3236, " boy": 3237, " af": 3238, "ön": 3239, " Get": 3240, " accept": 3241, " enter": 3242, " tur": 3243, " się": 3244, " honest": 3245, "「": 3246, " sam": 3247, " repl": 3248, "ging": 3249, " development": 3250, " Act": 3251, "ora": 3252, "」": 3253, "e4be": 3254, " knows": 3255, " image": 3256, " Lord": 3257, "ить": 3258, " weeks": 3259, " sex": 3260, "94eb": 3261, " hundred": 3262, " sounds": 3263, " learned": 3264, " bud": 3265, " ст": 3266, " incred": 3267, "e299": 3268, " nos": 3269, " drop": 3270, " ben": 3271, " И": 3272, " safe": 3273, "ata": 3274, " fuck": 3275, "soci": 3276, " dan": 3277, " cross": 3278, "10": 3279, "mo": 3280, "vert": 3281, " 17": 3282, "zie": 3283, "e595": 3284, " dom": 3285, " Bo": 3286, " setting": 3287, " involved": 3288, "arily": 3289, " sind": 3290, " sus": 3291, " worry": 3292, "eth": 3293, "까": 3294, " sun": 3295, " hier": 3296, " certainly": 3297, "oul": 3298, "orts": 3299, " Er": 3300, " Um": 3301, " caus": 3302, " natural": 3303, " ü": 3304, " cry": 3305, " Sec": 3306, " som": 3307, "e6b2": 3308, " education": 3309, "ает": 3310, " multip": 3311, " alone": 3312, " eye": 3313, " rate": 3314, " Europe": 3315, "e8bf": 3316, "mon": 3317, " fit": 3318, "izing": 3319, "pped": 3320, " pressure": 3321, "the": 3322, "ис": 3323, "ites": 3324, " Af": 3325, "reci": 3326, "attle": 3327, " services": 3328, " Google": 3329, "e981": 3330, " cases": 3331, " drive": 3332, " challeng": 3333, "uz": 3334, " Mo": 3335, "ec9cbceb": 3336, "val": 3337, "個": 3338, " fol": 3339, "20eca2": 3340, "ffic": 3341, " ra": 3342, " sin": 3343, " blue": 3344, " affect": 3345, " mis": 3346, " shot": 3347, " об": 3348, "asing": 3349, " signific": 3350, " Che": 3351, "20eab3": 3352, " positive": 3353, "eca3": 3354, " wie": 3355, " 40": 3356, "ording": 3357, " From": 3358, "eab5": 3359, " brand": 3360, " trust": 3361, " ple": 3362, " communic": 3363, " weight": 3364, " asking": 3365, " tax": 3366, " Japan": 3367, "た": 3368, " 하": 3369, "ops": 3370, "ς": 3371, " putting": 3372, " roll": 3373, " America": 3374, "reg": 3375, "9ed7": 3376, "atures": 3377, "ension": 3378, " Somet": 3379, " original": 3380, "ping": 3381, " ş": 3382, " products": 3383, "ー": 3384, " contact": 3385, "olution": 3386, " goal": 3387, " pow": 3388, " performance": 3389, " blood": 3390, "ators": 3391, " Mich": 3392, " temper": 3393, " Dan": 3394, " sugg": 3395, "ти": 3396, " imm": 3397, " office": 3398, " arri": 3399, " comfort": 3400, " Д": 3401, " suggest": 3402, " plat": 3403, "8298": 3404, "19": 3405, " om": 3406, " seven": 3407, " Cent": 3408, "ille": 3409, " concept": 3410, " bag": 3411, "ün": 3412, "ively": 3413, " div": 3414, "mos": 3415, "e689": 3416, " feels": 3417, " ir": 3418, "akes": 3419, "ley": 3420, " particip": 3421, " К": 3422, "fl": 3423, "just": 3424, " sil": 3425, " Pa": 3426, "AL": 3427, " gotta": 3428, " fan": 3429, " challenge": 3430, " companies": 3431, " People": 3432, "</": 3433, "оз": 3434, " pen": 3435, "ising": 3436, " aus": 3437, "emic": 3438, "amente": 3439, " meeting": 3440, " visit": 3441, " supposed": 3442, " Once": 3443, "да": 3444, "orld": 3445, "30": 3446, "US": 3447, " viol": 3448, " notice": 3449, " А": 3450, "han": 3451, "ped": 3452, "ec98": 3453, "hh": 3454, " trou": 3455, " minute": 3456, " Par": 3457, "ray": 3458, " tit": 3459, " upd": 3460, " block": 3461, " due": 3462, "aur": 3463, " force": 3464, " coun": 3465, " —": 3466, " types": 3467, "eba7": 3468, " late": 3469, " improve": 3470, "20ec88": 3471, " ave": 3472, "ules": 3473, "cl": 3474, "amed": 3475, " awesome": 3476, " Ok": 3477, " vot": 3478, " machine": 3479, " following": 3480, " measure": 3481, "ación": 3482, "uel": 3483, "chan": 3484, " ability": 3485, " tout": 3486, " ideas": 3487, " increase": 3488, " ens": 3489, " х": 3490, "20ebaa": 3491, " jest": 3492, " М": 3493, " truth": 3494, "hy": 3495, " spend": 3496, " science": 3497, "ete": 3498, " 14": 3499, " episode": 3500, " alg": 3501, "ended": 3502, "こ": 3503, "ari": 3504, "lla": 3505, " fish": 3506, " throw": 3507, "mit": 3508, "e5b9": 3509, " circ": 3510, " Cal": 3511, " tour": 3512, " direction": 3513, " noch": 3514, "ев": 3515, "én": 3516, " countries": 3517, " industry": 3518, "iny": 3519, "icle": 3520, " feet": 3521, "It": 3522, " leaders": 3523, "etzt": 3524, " staff": 3525, "e794": 3526, " purp": 3527, "ito": 3528, "?!": 3529, " Ja": 3530, " store": 3531, "etic": 3532, " China": 3533, "20eb90": 3534, " University": 3535, " #": 3536, " decision": 3537, " achie": 3538, " actual": 3539, "uly": 3540, " section": 3541, " results": 3542, " star": 3543, " mist": 3544, "ibly": 3545, " dad": 3546, " numbers": 3547, "omb": 3548, "e8aa": 3549, " Spe": 3550, " mer": 3551, " 25": 3552, " autom": 3553, " cold": 3554, "ب": 3555, "849c": 3556, "ager": 3557, " TV": 3558, " Sie": 3559, " Have": 3560, " że": 3561, "ugg": 3562, "ained": 3563, " upon": 3564, " log": 3565, " complete": 3566, " brain": 3567, "aging": 3568, " Mus": 3569, "over": 3570, " easier": 3571, " integr": 3572, " más": 3573, " turned": 3574, " stri": 3575, "ival": 3576, " heav": 3577, " TH": 3578, " writing": 3579, "ра": 3580, "在": 3581, "大": 3582, " cla": 3583, "ding": 3584, " telling": 3585, "ид": 3586, "icated": 3587, "以": 3588, "acht": 3589, "あ": 3590, "haps": 3591, " Ste": 3592, " resources": 3593, " dann": 3594, " party": 3595, " τ": 3596, " saf": 3597, "ises": 3598, "tre": 3599, "oint": 3600, " knowledge": 3601, " anymore": 3602, " fly": 3603, " maint": 3604, "ик": 3605, "e591": 3606, " sell": 3607, "laughs": 3608, " York": 3609, " bien": 3610, " od": 3611, " easily": 3612, " range": 3613, " option": 3614, "ع": 3615, " appreci": 3616, "ocr": 3617, " determ": 3618, "ф": 3619, " meaning": 3620, " site": 3621, " disco": 3622, "verage": 3623, " lose": 3624, " install": 3625, " emot": 3626, "antly": 3627, "ät": 3628, " tamb": 3629, " War": 3630, " Ho": 3631, " Gen": 3632, "emy": 3633, "ез": 3634, " Pol": 3635, " message": 3636, " note": 3637, "8c80": 3638, " het": 3639, " immedi": 3640, " avo": 3641, " books": 3642, " becomes": 3643, "resh": 3644, "ès": 3645, "asons": 3646, " himself": 3647, "uts": 3648, " ju": 3649, " aware": 3650, " require": 3651, " systems": 3652, " Har": 3653, " among": 3654, " hom": 3655, " breat": 3656, " weird": 3657, "20ebb6": 3658, "λ": 3659, "ة": 3660, "iff": 3661, "oring": 3662, " platform": 3663, " Take": 3664, " helps": 3665, "utions": 3666, " forg": 3667, " luck": 3668, " English": 3669, " web": 3670, " negative": 3671, " tut": 3672, " above": 3673, "ngth": 3674, " 거": 3675, " stories": 3676, " load": 3677, " background": 3678, " switch": 3679, "ga": 3680, " princi": 3681, " finan": 3682, " various": 3683, " là": 3684, " kinds": 3685, "aining": 3686, " nature": 3687, " О": 3688, "cz": 3689, " pray": 3690, " gar": 3691, "irm": 3692, " &": 3693, "20ec83": 3694, "ns": 3695, " Rep": 3696, " Fe": 3697, " rev": 3698, "rand": 3699, " likely": 3700, " understanding": 3701, "ır": 3702, "か": 3703, " fal": 3704, " 13": 3705, "ци": 3706, " sud": 3707, " brother": 3708, " plant": 3709, " throughout": 3710, "wise": 3711, "pre": 3712, " culture": 3713, " م": 3714, " wonderful": 3715, " ah": 3716, "pper": 3717, " sold": 3718, " starts": 3719, " written": 3720, "ί": 3721, "ni": 3722, "20d794d7": 3723, " Dav": 3724, " ult": 3725, " arm": 3726, " rock": 3727, " wear": 3728, "데": 3729, "ano": 3730, "rag": 3731, " square": 3732, "ани": 3733, "cast": 3734, "lebr": 3735, " literally": 3736, " played": 3737, " heat": 3738, "onse": 3739, "rict": 3740, " insp": 3741, "ids": 3742, " popular": 3743, "도": 3744, " catch": 3745, " mount": 3746, " jud": 3747, "What": 3748, "еб": 3749, "RA": 3750, "aud": 3751, "ко": 3752, " surface": 3753, " conv": 3754, " pieces": 3755, "Oh": 3756, "e680": 3757, " style": 3758, "pping": 3759, " reading": 3760, " conversation": 3761, "оп": 3762, "來": 3763, " Again": 3764, " bank": 3765, "time": 3766, "ут": 3767, "erve": 3768, " Great": 3769, " capt": 3770, "аб": 3771, "ays": 3772, " Fin": 3773, "ification": 3774, " är": 3775, "аю": 3776, " egg": 3777, " Wel": 3778, " target": 3779, "ula": 3780, "ches": 3781, "ani": 3782, "OO": 3783, "icious": 3784, "now": 3785, "σ": 3786, "board": 3787, " gente": 3788, " dro": 3789, " Et": 3790, " din": 3791, " cos": 3792, " author": 3793, "س": 3794, " och": 3795, " email": 3796, " spirit": 3797, " sitting": 3798, "mas": 3799, " strength": 3800, " bigger": 3801, " Wait": 3802, " mat": 3803, " police": 3804, "ressed": 3805, " waiting": 3806, "ishing": 3807, " dollars": 3808, "hood": 3809, "ss": 3810, " imagine": 3811, "ini": 3812, " mes": 3813, " dise": 3814, "idge": 3815, "abor": 3816, " pet": 3817, " hop": 3818, " King": 3819, " computer": 3820, " gold": 3821, " nu": 3822, " fing": 3823, "),": 3824, " security": 3825, "ruction": 3826, " solution": 3827, "ext": 3828, " patter": 3829, "icken": 3830, "ured": 3831, " standard": 3832, "시": 3833, " double": 3834, "η": 3835, " wife": 3836, "isa": 3837, " directly": 3838, "aced": 3839, " bunch": 3840, " ¿": 3841, "аль": 3842, " regard": 3843, " sweet": 3844, " unique": 3845, " ♫": 3846, " train": 3847, " Germ": 3848, "ά": 3849, "RE": 3850, " behav": 3851, " pred": 3852, "ec83": 3853, "set": 3854, " description": 3855, "ée": 3856, " cat": 3857, "e593": 3858, " college": 3859, "ec9b": 3860, " application": 3861, " Sen": 3862, "ask": 3863, " cred": 3864, "ublic": 3865, " multiple": 3866, " ni": 3867, " president": 3868, " added": 3869, " rob": 3870, " aqui": 3871, " hosp": 3872, " tools": 3873, " gun": 3874, " basic": 3875, " lines": 3876, " structure": 3877, " Russ": 3878, " totally": 3879, " biggest": 3880, " een": 3881, " arg": 3882, " ל": 3883, " park": 3884, " Des": 3885, " celebr": 3886, " fait": 3887, "ень": 3888, " suff": 3889, " regular": 3890, "a8eb": 3891, " mine": 3892, " Kore": 3893, " previous": 3894, " pi": 3895, " seg": 3896, " policy": 3897, " ко": 3898, " Trump": 3899, " vacc": 3900, "ów": 3901, " Sy": 3902, "ич": 3903, "itter": 3904, " political": 3905, "ras": 3906, " als": 3907, "ель": 3908, " shape": 3909, "anz": 3910, " onto": 3911, " arch": 3912, " amb": 3913, "agram": 3914, " Sm": 3915, "ctions": 3916, " join": 3917, "bor": 3918, "e59b": 3919, " frame": 3920, "a087": 3921, " choice": 3922, "ு": 3923, "ую": 3924, " Cor": 3925, " Sw": 3926, "IT": 3927, " tend": 3928, " Ear": 3929, " tor": 3930, " events": 3931, " claim": 3932, " Da": 3933, " Mark": 3934, " groups": 3935, " eating": 3936, " World": 3937, " recently": 3938, " taste": 3939, " surv": 3940, "e0a4": 3941, " skills": 3942, " из": 3943, "itted": 3944, " shop": 3945, "ec9db4ec": 3946, " estab": 3947, " 나": 3948, " seconds": 3949, " Those": 3950, " Ent": 3951, "20ec84": 3952, "erson": 3953, " town": 3954, " cand": 3955, " options": 3956, " ing": 3957, "VID": 3958, " encour": 3959, " ré": 3960, "♪": 3961, " entre": 3962, " movement": 3963, " Ben": 3964, " birth": 3965, " whe": 3966, " hang": 3967, " Em": 3968, "ige": 3969, "roll": 3970, " unf": 3971, "ec82": 3972, " rid": 3973, " spread": 3974, " host": 3975, "ald": 3976, " Ed": 3977, " consum": 3978, "UN": 3979, " opin": 3980, "itar": 3981, " Med": 3982, " subject": 3983, " pal": 3984, " carry": 3985, " agree": 3986, " While": 3987, " career": 3988, " scient": 3989, " sudden": 3990, " file": 3991, "zi": 3992, " except": 3993, "e9ba": 3994, " potential": 3995, " Another": 3996, " complex": 3997, " Sim": 3998, "endo": 3999, " rais": 4000, " physical": 4001, " date": 4002, "aker": 4003, " Col": 4004, " powerful": 4005, " member": 4006, "rap": 4007, " spot": 4008, " source": 4009, " fem": 4010, "ém": 4011, " emp": 4012, "ji": 4013, "iety": 4014, " influ": 4015, " dry": 4016, " lock": 4017, " zero": 4018, " Uh": 4019, " rout": 4020, " porque": 4021, " 24": 4022, " tal": 4023, " folks": 4024, " launch": 4025, " compon": 4026, " Welcome": 4027, " kann": 4028, "än": 4029, " эт": 4030, "ees": 4031, " و": 4032, " anyway": 4033, " audience": 4034, "人": 4035, " slight": 4036, "ona": 4037, " ur": 4038, " relig": 4039, " extrem": 4040, "ız": 4041, " Ma": 4042, "μ": 4043, " ö": 4044, " allows": 4045, " fat": 4046, " Face": 4047, " national": 4048, " interview": 4049, " Mc": 4050, "ét": 4051, " cute": 4052, "ela": 4053, " secret": 4054, " West": 4055, " Dep": 4056, " exerc": 4057, " histor": 4058, " prior": 4059, " 60": 4060, "ava": 4061, "acher": 4062, "yond": 4063, " Ha": 4064, " este": 4065, "inary": 4066, " North": 4067, "onst": 4068, " smart": 4069, "ams": 4070, "али": 4071, " dar": 4072, "ered": 4073, " funny": 4074, " Ob": 4075, " Black": 4076, " related": 4077, " Bu": 4078, " somewhere": 4079, " Rem": 4080, "nes": 4081, "mente": 4082, " Really": 4083, " creating": 4084, " famil": 4085, " society": 4086, " gel": 4087, " transform": 4088, "ă": 4089, " include": 4090, " hol": 4091, "like": 4092, "ko": 4093, "airs": 4094, " под": 4095, " perspect": 4096, " bes": 4097, " particularly": 4098, " showing": 4099, " Part": 4100, " qual": 4101, "lock": 4102, " reality": 4103, "hold": 4104, "iction": 4105, "oon": 4106, " vir": 4107, "に": 4108, "itary": 4109, " drug": 4110, " feature": 4111, " reasons": 4112, " ש": 4113, " wrote": 4114, " fant": 4115, " band": 4116, "ك": 4117, "ena": 4118, "key": 4119, " earth": 4120, "dom": 4121, " features": 4122, " floor": 4123, " speaking": 4124, " tip": 4125, " Aust": 4126, " stock": 4127, " church": 4128, " rac": 4129, "으로": 4130, "น": 4131, "れ": 4132, "ky": 4133, " response": 4134, "ی": 4135, "ulations": 4136, " slide": 4137, " gradu": 4138, "cious": 4139, " meant": 4140, " ==": 4141, "20d790d7": 4142, "e385": 4143, " kinda": 4144, " scene": 4145, " muit": 4146, " 가": 4147, "rast": 4148, "rest": 4149, " players": 4150, "wa": 4151, " broad": 4152, " tomorrow": 4153, "ocol": 4154, " св": 4155, " Bar": 4156, "ık": 4157, " sea": 4158, " remove": 4159, " remind": 4160, "ому": 4161, " Since": 4162, " avec": 4163, "cell": 4164, "их": 4165, " document": 4166, "20eab7b8eb9f": 4167, " neigh": 4168, "beat": 4169, " på": 4170, " aspect": 4171, " ded": 4172, "lished": 4173, "ils": 4174, " ourselves": 4175, "uce": 4176, " hey": 4177, " про": 4178, "enty": 4179, " associ": 4180, "ados": 4181, "umber": 4182, " ]": 4183, "那": 4184, "nov": 4185, "20ec99": 4186, "уч": 4187, " condition": 4188, "는데": 4189, " values": 4190, " scen": 4191, "minist": 4192, " cast": 4193, " growing": 4194, " user": 4195, " respond": 4196, "lim": 4197, "ér": 4198, "ym": 4199, "看": 4200, "oses": 4201, "sych": 4202, " раз": 4203, " appear": 4204, " progress": 4205, "ength": 4206, " jak": 4207, " Dis": 4208, " patients": 4209, " Ser": 4210, " gas": 4211, "ère": 4212, "어요": 4213, " reci": 4214, "인": 4215, " sca": 4216, "epend": 4217, "ск": 4218, "ап": 4219, " batter": 4220, " veh": 4221, "f09f": 4222, " accom": 4223, " beat": 4224, " paint": 4225, " contrib": 4226, " sad": 4227, "ư": 4228, "ales": 4229, " tree": 4230, " born": 4232, "iced": 4233, "க": 4234, "band": 4235, " mechan": 4236, " Det": 4237, " capital": 4238, " deliver": 4239, " fear": 4240, "9e98": 4241, " South": 4242, " bought": 4243, " stress": 4244, " vor": 4245, "??": 4246, "ih": 4247, "야": 4248, " era": 4249, "ec9db4eb": 4250, "ая": 4251, "isions": 4252, "ivity": 4253, " helped": 4254, " assist": 4255, " player": 4256, "ran": 4257, " immediately": 4258, " moved": 4259, "cie": 4260, "eab1": 4261, " announ": 4262, "e5bf": 4263, "자": 4264, " production": 4265, " summer": 4266, " tun": 4267, " programs": 4268, "GH": 4269, "aling": 4270, "ira": 4271, "eless": 4272, ".)": 4273, " average": 4274, "要": 4275, " glass": 4276, "oman": 4277, "ifically": 4278, " 다": 4279, " Cong": 4280, " Ver": 4281, " trick": 4282, " began": 4283, " vill": 4284, "거": 4285, "how": 4286, "e6ad": 4287, " till": 4288, " 90": 4289, "bert": 4290, "20eab8": 4291, " temperature": 4292, "ò": 4293, "่": 4294, " graph": 4295, " 그": 4296, " rot": 4297, " mob": 4298, "AY": 4299, "ael": 4300, " repe": 4301, " device": 4302, " 199": 4303, " tele": 4304, " kept": 4305, "pa": 4306, "e696": 4307, "verse": 4308, " stream": 4309, "еч": 4310, "ession": 4311, " strugg": 4312, "zz": 4313, " degree": 4314, " helping": 4315, " smell": 4316, " perhaps": 4317, "pro": 4318, " context": 4319, " ik": 4320, " пер": 4321, " calcul": 4322, "麼": 4323, "bing": 4324, " realize": 4325, "lam": 4326, " Char": 4327, "yt": 4328, "20ec9db4ec": 4329, " danger": 4330, " Im": 4331, " loved": 4333, " purpose": 4334, " finished": 4335, " peace": 4336, " ot": 4337, " global": 4338, "π": 4339, " aber": 4340, "9688": 4341, " characters": 4342, " nur": 4343, " damage": 4344, " emer": 4345, " prec": 4346, " Wir": 4347, " instit": 4348, "91d7": 4349, " allowed": 4350, "bon": 4351, " tod": 4352, "его": 4353, " jetzt": 4354, " medic": 4355, " smaller": 4356, "ceed": 4357, " levels": 4358, " intell": 4359, "We": 4360, " sem": 4361, " currently": 4362, " modern": 4363, " contract": 4364, " details": 4365, "ortunately": 4366, "OS": 4367, " states": 4368, " adjust": 4369, "antage": 4370, "ez": 4371, " Very": 4372, " scale": 4373, " release": 4374, " faz": 4375, " ic": 4376, "itude": 4377, "AC": 4378, " Pat": 4379, "iden": 4380, "ad90": 4381, " prefer": 4382, "ological": 4383, " Facebook": 4384, " 같": 4385, " ..": 4386, " Make": 4387, " котор": 4388, " David": 4389, " Afric": 4390, " mode": 4391, " City": 4392, " shall": 4393, " ф": 4394, "imin": 4395, " за": 4396, "rom": 4397, "ua": 4398, " beyond": 4399, " distrib": 4400, "ку": 4401, " Does": 4402, " vict": 4403, "rate": 4404, " vai": 4405, " successful": 4406, " hous": 4407, "aha": 4408, "ests": 4409, " Est": 4410, " discover": 4411, " therefore": 4412, "cha": 4413, " cup": 4414, " population": 4415, " Il": 4416, "sc": 4417, " spent": 4418, "rel": 4419, " useful": 4420, " tab": 4421, "e69d": 4422, "20c5": 4423, " 제": 4424, " conse": 4425, " quant": 4426, "aya": 4427, " bon": 4428, "可": 4429, " Chin": 4430, " 것": 4431, "ounds": 4432, "еш": 4433, "elle": 4434, " ice": 4435, "21": 4436, " kick": 4437, "下": 4438, " steps": 4439, " tonight": 4440, "ный": 4441, "rench": 4442, ".'": 4443, " grab": 4444, " implement": 4445, " 수": 4446, " mission": 4447, " clearly": 4448, " appreciate": 4449, "e880": 4450, " fresh": 4451, "arm": 4452, " Two": 4453, " exec": 4454, " projects": 4455, " communities": 4456, "rible": 4457, " region": 4458, " frequ": 4459, "roy": 4460, " however": 4461, " partners": 4462, "anc": 4463, " minim": 4464, " lat": 4465, " families": 4466, " evidence": 4467, " pun": 4468, "raft": 4469, " loss": 4470, " map": 4471, " anybody": 4472, " changing": 4473, " rules": 4474, " organization": 4475, " essentially": 4476, " Red": 4477, " element": 4478, "e697": 4479, " virt": 4480, "rat": 4481, " print": 4482, "ander": 4483, "aren": 4484, "emos": 4485, "ου": 4486, " conditions": 4487, "abe": 4488, " dance": 4489, "ир": 4490, " dos": 4491, "оч": 4492, " Que": 4493, " walking": 4494, " tro": 4495, " id": 4496, " additional": 4497, " fully": 4498, " fans": 4499, " addition": 4500, " liked": 4501, " über": 4502, " bow": 4503, "di": 4504, " master": 4505, "off": 4506, "):": 4507, "mber": 4508, "20ebac": 4509, "e5af": 4510, "到": 4511, "lause": 4512, " oder": 4513, " safety": 4514, " react": 4515, "ி": 4516, "bt": 4517, " disapp": 4518, " girls": 4519, "St": 4520, " Ang": 4521, " faith": 4522, " turns": 4523, " tight": 4524, " mouth": 4525, "ami": 4526, "zer": 4527, " weap": 4528, " буд": 4529, " hospital": 4530, "raid": 4531, " micro": 4532, " State": 4533, " Most": 4534, "agn": 4535, " decide": 4536, " patient": 4537, " corner": 4538, " died": 4539, "No": 4540, " Stud": 4541, "rend": 4542, "empt": 4543, " lie": 4544, " lif": 4545, " Before": 4546, "tó": 4547, " Super": 4548, " bell": 4549, "60": 4550, " private": 4551, " Paul": 4552, " gib": 4553, " agre": 4554, "b4ec849c": 4555, " sig": 4556, " investig": 4557, "ят": 4558, "ening": 4559, " distance": 4560, " warm": 4561, " digital": 4562, "很": 4563, "iner": 4564, " pand": 4565, " COVID": 4566, "го": 4567, "gn": 4568, " race": 4569, " proud": 4570, " teaching": 4571, " то": 4572, "장": 4573, " Allah": 4574, "In": 4575, " wood": 4576, " colors": 4577, " wird": 4578, "uj": 4579, "idad": 4580, " customers": 4581, " connected": 4582, " layer": 4583, " achieve": 4584, " perspective": 4585, " Coll": 4586, "ق": 4587, " cloud": 4588, "!!!": 4589, " ended": 4590, "a087eab28c": 4591, " management": 4592, " rich": 4593, " subst": 4594, " remo": 4595, " serve": 4596, " resist": 4597, " thoughts": 4598, " growth": 4599, "iliar": 4600, " rights": 4601, " charge": 4602, " consist": 4603, " werden": 4604, " emb": 4605, "andom": 4606, " hurt": 4607, " kan": 4608, "ias": 4609, "ло": 4610, " shit": 4611, " beg": 4612, " received": 4613, "itation": 4614, " meat": 4615, " isso": 4616, "ffee": 4617, " famous": 4618, " comfortable": 4619, "IL": 4620, " Bye": 4621, "說": 4622, "們": 4623, "othes": 4624, " medical": 4625, " enjoyed": 4626, " healthy": 4627, " wy": 4628, "cies": 4629, " effort": 4630, " doctor": 4631, " military": 4632, "LAU": 4633, " gro": 4634, " battle": 4635, " fed": 4636, " capac": 4637, " afraid": 4638, "ivil": 4639, " все": 4640, " length": 4641, "ysis": 4642, " bei": 4643, "a4ed": 4644, " organiz": 4645, "org": 4646, "inc": 4647, " interact": 4648, " Chinese": 4649, " according": 4650, " incredible": 4651, " killed": 4652, " daughter": 4653, " π": 4654, "ыв": 4655, " schools": 4656, " «": 4657, "ller": 4658, " shouldn": 4659, "nal": 4660, " cris": 4661, " chicken": 4662, " faster": 4663, " extremely": 4664, " oppos": 4665, " nous": 4666, " +": 4667, "ria": 4668, " financial": 4669, " exciting": 4670, " journey": 4671, "ים": 4672, "a0eb": 4673, " display": 4674, " memory": 4675, " heavy": 4676, "не": 4677, " passed": 4678, "ри": 4679, "iles": 4680, " psych": 4681, " specifically": 4682, " engage": 4683, " led": 4684, "orge": 4685, " Dem": 4686, "order": 4687, " 80": 4688, " cream": 4689, "esterday": 4690, " edge": 4691, " пол": 4692, " bull": 4693, " indic": 4694, " któ": 4695, " hopefully": 4696, "uments": 4697, "agen": 4698, "ного": 4699, " hate": 4700, "cht": 4701, " effic": 4703, " 지": 4704, " internet": 4705, " budget": 4706, " property": 4707, "iday": 4708, "20ec9a": 4709, " мож": 4710, "ola": 4711, " showed": 4712, " Mon": 4713, " thousand": 4714, "AP": 4715, " poor": 4716, "used": 4717, " Jack": 4718, " så": 4719, "83bd": 4720, " esc": 4721, " software": 4722, " quar": 4723, " ب": 4724, " necessarily": 4725, "omen": 4726, "iy": 4727, " eventually": 4728, "ished": 4729, " bright": 4730, "ED": 4731, " spl": 4732, " demand": 4733, " threat": 4734, " sir": 4735, " released": 4736, "cket": 4737, " ‫": 4738, " required": 4739, " vote": 4740, "ecb9": 4741, "த": 4742, " developed": 4743, " 사": 4744, "atory": 4745, " dir": 4746, "cape": 4747, " slightly": 4748, "ì": 4749, "้": 4750, "reet": 4751, " disease": 4752, " court": 4753, " items": 4754, " Earth": 4755, "сти": 4756, "же": 4757, "ecb2": 4758, " challenges": 4759, " Brit": 4760, " designed": 4761, "12": 4762, " hearing": 4763, " listening": 4764, "zo": 4765, " сл": 4766, "です": 4767, " pero": 4768, " wearing": 4769, "plic": 4770, " chem": 4771, " balance": 4772, " ba": 4773, " receive": 4774, "ima": 4775, " significant": 4776, " мы": 4777, "anch": 4778, " Cr": 4779, " Coun": 4780, "금": 4781, " jobs": 4782, " official": 4783, " perm": 4784, "oms": 4785, " opportunities": 4786, " overall": 4787, " hus": 4788, "odes": 4789, " nation": 4790, " Reg": 4791, " ord": 4792, " restaur": 4793, "20ec86": 4794, " mel": 4795, "vin": 4796, " wenn": 4797, " kön": 4798, "e683": 4799, " opinion": 4800, "も": 4801, "e8ac": 4802, " Sometimes": 4803, "e782": 4804, "ще": 4805, "asc": 4806, "OU": 4807, " 2020": 4808, " delicious": 4809, "iger": 4810, " 안": 4811, "ole": 4812, " handle": 4813, " cit": 4814, " 한": 4815, " för": 4816, "ooth": 4817, " necessary": 4818, " independ": 4819, "e684": 4820, "isten": 4821, "ham": 4822, " ét": 4823, "ン": 4824, " multi": 4825, "ό": 4826, "?)": 4827, " campus": 4828, " topic": 4829, " rain": 4830, " panel": 4831, " Sam": 4832, " larger": 4833, "audience": 4834, " paid": 4835, " economic": 4836, "olt": 4837, " street": 4838, " Cont": 4839, " driving": 4840, " 저": 4841, " hay": 4842, " professional": 4843, " Intern": 4844, "e5b8": 4845, " input": 4846, " categ": 4847, " cro": 4848, " ll": 4849, "ET": 4850, "ый": 4851, "**": 4852, " Ze": 4853, "BLE": 4854, "20eca4": 4855, "rees": 4856, " Я": 4857, "ede": 4858, "iert": 4859, " fold": 4860, " dur": 4861, " National": 4862, "20ec96b4eb": 4863, "anced": 4864, " faire": 4865, "uted": 4866, " king": 4867, " wild": 4868, "oi": 4869, "upbeat": 4870, " prevent": 4871, "ius": 4872, " è": 4873, " wide": 4874, " ring": 4875, " title": 4876, " standing": 4877, " although": 4878, " hi": 4879, " sauce": 4880, " sides": 4881, " animals": 4882, "iling": 4883, "atives": 4884, "에서": 4885, " Over": 4886, " desp": 4887, " considered": 4888, "aries": 4889, "iers": 4890, " einen": 4891, " sister": 4892, "20eb95": 4893, " Sure": 4894, "る": 4895, "riend": 4896, "aign": 4897, " shown": 4898, " sac": 4899, " sont": 4900, " century": 4901, " tien": 4902, " κ": 4903, " ST": 4904, "啊": 4905, " older": 4906, "iem": 4907, " truly": 4908, " Si": 4909, " window": 4910, "iques": 4911, "ario": 4912, "沒": 4913, " location": 4914, "κ": 4915, "20ec9c": 4916, "vi": 4917, "ague": 4918, " Sorry": 4919, " disp": 4920, " hell": 4921, " É": 4922, " trade": 4923, " critical": 4924, "20eab1": 4925, " named": 4926, " prepared": 4927, " House": 4928, "alu": 4929, " tough": 4930, " trip": 4931, " sand": 4932, "cel": 4933, "üz": 4934, " Put": 4935, " apart": 4936, "isf": 4937, "vis": 4938, " libr": 4939, "aven": 4940, " vie": 4941, " effective": 4942, "า": 4943, " magn": 4944, " muito": 4945, "20eab5": 4946, "hal": 4947, " limit": 4948, " nine": 4949, " willing": 4950, "ış": 4951, "sp": 4952, "ег": 4953, "hi": 4954, " alt": 4955, " Jan": 4956, " origin": 4957, " Us": 4958, " elements": 4959, " uses": 4960, " helpful": 4961, " flat": 4962, " familiar": 4963, " Park": 4964, " core": 4965, " closer": 4966, " active": 4967, " administ": 4968, "CE": 4969, "ные": 4970, "e784": 4971, " relative": 4972, " mental": 4973, " random": 4974, " partner": 4975, " util": 4976, "phone": 4977, " rule": 4978, "ww": 4979, " 정": 4980, " schon": 4981, " coffee": 4982, "HA": 4983, " connection": 4984, " unit": 4985, "laughing": 4986, "log": 4987, " appl": 4988, "ла": 4989, "usic": 4990, " Bra": 4991, " anywhere": 4992, "AUDI": 4993, " separate": 4994, "box": 4995, " divid": 4996, " testing": 4997, " sick": 4998, " weren": 4999, "他": 5000, "20d79cd7": 5001, " advantage": 5002, " transfer": 5003, "'.": 5004, "20ebb9": 5005, " finding": 5006, "ной": 5007, " 좋": 5008, " fort": 5009, " economy": 5010, " lack": 5011, " leaving": 5012, " dim": 5013, "e58e": 5014, " Res": 5015, "ح": 5016, " discussion": 5017, "еп": 5018, " ges": 5019, "duct": 5020, " chain": 5021, " users": 5022, "ech": 5023, "ła": 5024, " dish": 5025, " careful": 5026, " teacher": 5027, " optim": 5028, " flu": 5029, "atically": 5030, " reflect": 5031, " treatment": 5032, "eed": 5033, "ię": 5034, "ù": 5035, "ா": 5036, " equip": 5037, " planning": 5038, " solve": 5039, "そ": 5040, " Tom": 5041, " avoid": 5042, " pou": 5043, " greater": 5044, "lin": 5045, "OL": 5046, " Lu": 5047, " More": 5048, " attract": 5049, "ên": 5050, "una": 5051, " photo": 5052, "eration": 5053, " planet": 5054, " copy": 5055, " visual": 5056, "iring": 5057, " international": 5058, " laughing": 5059, " thick": 5060, " holding": 5061, " bringing": 5062, " letter": 5063, " burn": 5064, " effects": 5065, "ité": 5066, "ours": 5067, "OT": 5068, "ême": 5069, " School": 5070, "ות": 5071, "ropri": 5072, "lig": 5073, "αι": 5074, " adult": 5075, " sugar": 5076, " ride": 5077, " highlight": 5078, " nobody": 5079, " 21": 5080, " chat": 5081, " при": 5082, " innov": 5083, "ungen": 5084, " attach": 5085, "edom": 5086, "e58a": 5087, "yl": 5088, " legal": 5089, " rice": 5090, " collabor": 5091, "king": 5092, "down": 5093, "e699": 5094, "り": 5095, " ih": 5096, " Ac": 5097, "ously": 5098, " rap": 5099, " solid": 5100, " generally": 5101, " pattern": 5102, "ali": 5103, "อ": 5104, " transl": 5105, "inter": 5106, "ault": 5107, "20eba8": 5108, " express": 5109, " examples": 5110, " chose": 5111, " tells": 5112, "ís": 5113, "aint": 5114, " Tell": 5115, " Michael": 5116, "e6a8": 5117, " Number": 5118, " tap": 5119, " experiment": 5120, " benefit": 5121, "20ecb0": 5122, " sequ": 5123, " expensive": 5124, " generation": 5125, " Many": 5126, " adding": 5127, " kil": 5128, " campaign": 5129, " Ant": 5130, "raw": 5131, "ommen": 5132, " soul": 5133, "jo": 5134, " Actually": 5135, "amm": 5136, "겠": 5137, " maxim": 5138, " salt": 5139, " cru": 5140, " calling": 5141, "が": 5142, " basis": 5143, "ban": 5144, " keeping": 5145, " Mor": 5146, "eds": 5147, "ec86": 5148, " todo": 5149, "ами": 5150, "ня": 5151, " lived": 5152, " Du": 5153, "ら": 5154, "家": 5155, "force": 5156, "年": 5157, "ference": 5158, "ala": 5159, " occur": 5160, "sk": 5161, " recent": 5162, " cars": 5163, " traditional": 5164, "entle": 5165, "b288": 5166, " held": 5167, " nach": 5168, " Center": 5169, "eren": 5170, " bin": 5171, "ف": 5172, " comme": 5173, " reve": 5174, " 오": 5175, " expected": 5176, "abil": 5177, " focused": 5178, "ov": 5179, " iP": 5180, "orial": 5181, "iro": 5182, " etc": 5183, "aming": 5184, " Son": 5185, " yesterday": 5186, " strate": 5187, " ц": 5188, "20eb8f": 5189, "pes": 5190, " activity": 5191, " advice": 5192, " opening": 5193, "fin": 5194, " rela": 5195, "e996": 5196, " instance": 5197, " Everyone": 5198, "bl": 5199, "pen": 5200, " vision": 5201, " Alex": 5202, "iforn": 5203, " tick": 5204, "He": 5205, " strategy": 5206, " kom": 5207, "PE": 5208, " Gl": 5209, " electric": 5210, "15": 5211, " daily": 5212, " husband": 5213, " station": 5214, " analysis": 5215, "ynam": 5216, " attempt": 5217, " billion": 5218, "vant": 5219, " forth": 5220, " math": 5221, "aly": 5222, " behavior": 5223, " Mas": 5224, "kan": 5225, " Day": 5226, " bless": 5227, " gut": 5228, " High": 5229, "ox": 5230, " dress": 5231, " jed": 5232, "e8af": 5233, "e596": 5234, " experiences": 5235, "ista": 5236, " fighting": 5237, "e5b7": 5238, " ск": 5239, " mostly": 5240, "ause": 5241, " pictures": 5242, "ент": 5243, " mad": 5244, " models": 5245, "ше": 5246, " Count": 5247, "ń": 5248, "ło": 5249, "ept": 5250, "OM": 5251, " AN": 5252, " trouble": 5253, "40": 5254, " bird": 5255, "ulate": 5256, " mur": 5257, " produce": 5258, " married": 5259, "bit": 5260, " theory": 5261, "ed98": 5262, " leader": 5263, " Last": 5264, "AA": 5265, "e8b5": 5266, " images": 5267, " expand": 5268, " Por": 5269, " purch": 5270, " San": 5271, " Christmas": 5272, " Austral": 5273, " wid": 5274, " Miss": 5275, " knowing": 5276, " ze": 5277, "ship": 5278, "ku": 5279, "ход": 5280, " Instagram": 5281, " India": 5282, " esta": 5283, " Californ": 5284, " 70": 5285, " drag": 5286, " brush": 5287, " names": 5288, "And": 5289, " yo": 5290, "illa": 5291, " sched": 5292, " destroy": 5293, "year": 5294, " vamos": 5295, " ل": 5296, "ça": 5297, " forgot": 5298, "ие": 5299, " raise": 5300, "reme": 5301, "해": 5302, " Give": 5303, " contain": 5304, "rab": 5305, " gift": 5306, " сп": 5307, " request": 5308, " shut": 5309, " degrees": 5310, " benefits": 5311, "ые": 5312, " studies": 5313, " ends": 5314, " everywhere": 5315, " hero": 5316, "oph": 5317, "erry": 5318, " materials": 5319, "ened": 5320, "NA": 5321, "e58d": 5322, " muy": 5323, " worse": 5324, "什": 5325, " Mad": 5326, " decisions": 5327, "ione": 5328, " foreign": 5329, "laughter": 5330, "iber": 5331, "ения": 5332, "ㅋ": 5333, " realized": 5334, " ign": 5335, " weak": 5336, " μ": 5337, " scared": 5338, " assum": 5339, "AK": 5340, "efbf": 5341, "�": 5342, " covered": 5343, " Sat": 5344, " он": 5345, " individuals": 5346, " compared": 5347, "11": 5348, " Add": 5349, "icles": 5350, " cert": 5351, "rar": 5352, " brief": 5353, " activities": 5354, " fab": 5355, "bar": 5356, " ast": 5357, " Other": 5358, " classes": 5359, " og": 5360, " missing": 5361, "だ": 5362, "e99d": 5363, "wers": 5364, "ש": 5365, " introduce": 5366, " equation": 5367, "ます": 5368, " nom": 5369, " painting": 5370, "ushing": 5371, " AP": 5372, " encourage": 5373, " ship": 5374, "ittee": 5375, "iverse": 5376, "ota": 5377, "nam": 5378, "・": 5379, " exercise": 5380, " Э": 5381, " nas": 5382, " thousands": 5383, " California": 5384, " ses": 5385, " row": 5386, "9e88": 5387, " pandemic": 5388, " skill": 5389, "bel": 5390, " director": 5391, " milk": 5392, " nut": 5393, " motion": 5394, " closed": 5395, "e8a8": 5396, " credit": 5397, "ahr": 5398, " cheese": 5399, " altern": 5400, "imately": 5401, " sust": 5402, " Tra": 5403, " glad": 5404, " highly": 5405, " wa": 5406, " reduce": 5407, " ble": 5408, "ador": 5409, "inated": 5410, "iones": 5411, "cient": 5412, " depending": 5413, " sharing": 5414, " caught": 5415, "rael": 5416, " mehr": 5417, " passion": 5418, "e79b": 5419, " ru": 5420, " farm": 5421, "TI": 5422, "aves": 5423, " Rob": 5424, " Bro": 5425, " motiv": 5426, "retch": 5427, "rupt": 5428, " Big": 5429, " alle": 5430, " ett": 5431, "ubs": 5432, " Japanese": 5433, " Hall": 5434, "или": 5435, "AUDIBLE": 5436, "e7ac": 5437, " cells": 5438, "ika": 5439, "eline": 5440, "iler": 5441, "20eca3": 5442, " sky": 5443, "INAUDIBLE": 5444, "ende": 5445, "apter": 5446, " pin": 5447, " gather": 5448, "hol": 5449, "lection": 5450, " syn": 5451, " plug": 5452, "round": 5453, " university": 5454, "hib": 5455, " fantastic": 5456, "kn": 5457, " hole": 5458, " Remember": 5459, "inct": 5460, "aks": 5461, "CH": 5462, " broken": 5463, " strateg": 5464, " alive": 5465, " tank": 5466, " cart": 5467, "rated": 5468, "rie": 5469, " Step": 5470, " Everything": 5471, " bound": 5472, " sobre": 5473, " customer": 5474, "a18c": 5475, "urg": 5476, " Bill": 5477, "La": 5478, "what": 5479, " reaction": 5480, " session": 5481, " plans": 5482, " 이렇게": 5483, " download": 5484, "ec99": 5485, "uer": 5486, " cab": 5487, " instr": 5488, "ifying": 5489, " Nice": 5490, " teams": 5491, "ıl": 5492, " goals": 5493, "isch": 5494, " transport": 5495, " animal": 5496, " costs": 5497, " calls": 5498, " sehr": 5499, "ec88": 5500, "rian": 5501, " dial": 5502, " weather": 5503, "เ": 5504, " вот": 5505, " Play": 5506, " shared": 5507, " smooth": 5508, "aba": 5509, " leaves": 5510, "ன": 5511, " concent": 5512, " shift": 5513, " 되": 5514, " Govern": 5515, " demonst": 5516, " butter": 5517, " 여": 5518, " satisf": 5519, "88ebac": 5520, " recognize": 5521, " French": 5522, " volume": 5523, "änd": 5524, "ум": 5525, " 진": 5526, " Keep": 5527, "owa": 5528, "ipped": 5529, "стр": 5530, " detect": 5531, " σ": 5532, " lift": 5533, " clothes": 5534, " Stop": 5535, "õ": 5536, "met": 5537, " clin": 5538, " arr": 5539, "friend": 5540, " stuck": 5541, "Ye": 5542, "hand": 5543, "uma": 5544, " scri": 5545, " fucking": 5546, "ctors": 5547, "ת": 5548, " joining": 5549, " cette": 5550, " أ": 5551, " White": 5552, " ihr": 5553, "έ": 5554, "ね": 5555, " included": 5556, "esso": 5557, " acad": 5558, "bum": 5559, " sab": 5560, " для": 5561, "这": 5562, "ufact": 5563, " Republic": 5564, "rim": 5565, " yellow": 5566, " limited": 5567, "TER": 5568, " Ty": 5569, " notes": 5570, "vest": 5571, "из": 5572, "aled": 5573, " phase": 5574, "anda": 5575, " Mom": 5576, "RI": 5577, " immer": 5578, "mal": 5579, " inj": 5580, " yang": 5581, "udible": 5582, "аг": 5583, " sett": 5584, " magic": 5585, " ensure": 5586, " spring": 5587, " shock": 5588, " wheel": 5589, "огда": 5590, "よ": 5591, " cancer": 5592, " root": 5593, "А": 5594, "gency": 5595, "20eb8d": 5596, "ii": 5597, " output": 5598, " commit": 5599, " workers": 5600, "아요": 5601, " сам": 5602, "vey": 5603, " peu": 5604, " civil": 5605, "isc": 5606, " brings": 5607, "рав": 5608, "ania": 5609, "ā": 5610, "craft": 5611, "mbol": 5612, " intellig": 5613, "bi": 5614, "acing": 5615, "you": 5616, " becoming": 5617, " Der": 5618, "ema": 5619, "就是": 5620, " ingred": 5621, " command": 5622, " update": 5623, " prem": 5624, " opened": 5625, "84a4": 5626, "ение": 5627, " gard": 5628, " statement": 5629, " screw": 5630, " prote": 5631, " cards": 5632, " task": 5633, " evening": 5634, " stitch": 5635, "inen": 5636, " Ber": 5637, "mark": 5638, " Dad": 5639, " есть": 5640, "20d79ed7": 5641, "었": 5642, " ban": 5643, " clim": 5644, " freedom": 5645, " normally": 5646, "есь": 5647, "e5a6": 5648, " provided": 5649, " 자": 5650, " 아니": 5651, " Kim": 5652, "ieder": 5653, "음": 5654, " citiz": 5655, " bike": 5656, " bak": 5657, " noise": 5658, " climate": 5659, "izes": 5660, "後": 5661, " increasing": 5662, " THE": 5663, " liqu": 5664, " personally": 5665, "resp": 5667, " legs": 5668, "inder": 5669, " ped": 5670, " 많": 5671, " depend": 5672, " variety": 5673, " Israel": 5674, " wash": 5675, "e586": 5676, " quiet": 5677, " James": 5678, " Jew": 5679, " forever": 5680, " Int": 5681, " counter": 5682, "urance": 5683, " Anyway": 5684, "care": 5685, " Only": 5686, "ción": 5687, "adi": 5688, " Ev": 5689, "니까": 5690, " α": 5691, " slowly": 5692, " од": 5693, " noticed": 5694, "ieren": 5695, " fell": 5696, " Б": 5697, " même": 5698, " whenever": 5699, "!)": 5700, " Hy": 5701, "e5bc": 5702, "ords": 5703, "usion": 5704, " Star": 5705, "20ed98": 5706, " Mac": 5707, "上": 5708, "iven": 5709, " 시": 5710, " 없": 5711, " Tur": 5712, " ger": 5713, "ris": 5714, " vez": 5715, " лю": 5716, " versus": 5717, "d8a7d8": 5718, "ocolate": 5719, " plane": 5720, " zo": 5721, " suit": 5722, "This": 5723, " nerv": 5724, " Acc": 5725, "уж": 5726, "사": 5727, "nh": 5728, "eme": 5729, " auss": 5730, " meas": 5731, " très": 5732, "ω": 5733, "сли": 5734, " Art": 5735, " Second": 5736, "олько": 5737, "cho": 5738, "itect": 5739, "ест": 5740, " boss": 5741, " income": 5742, "a0a4": 5743, " shad": 5744, " appropri": 5745, " Mal": 5746, "opt": 5747, " artist": 5748, " plays": 5749, "others": 5750, " Inter": 5751, " virus": 5752, " hung": 5753, " constant": 5754, " script": 5755, " snow": 5756, "ulf": 5757, "ket": 5758, " devices": 5759, " metal": 5760, "ights": 5761, "세": 5762, " sales": 5763, " veget": 5764, " collection": 5765, " via": 5766, "ker": 5767, " gotten": 5768, "OW": 5769, "ién": 5770, " accur": 5771, " wave": 5772, "ulty": 5773, " Air": 5774, " leading": 5775, "icing": 5776, " central": 5777, " Christian": 5778, "fr": 5779, " Although": 5780, " songs": 5781, " fif": 5782, "ных": 5783, " belong": 5784, "ossible": 5785, "ecb0": 5786, " photos": 5787, "isl": 5788, " relax": 5789, "sa": 5790, "USIC": 5791, "eab7": 5792, " manufact": 5793, " Twitter": 5794, " dangerous": 5795, " hyd": 5796, "lear": 5797, "iant": 5798, " …": 5799, " suddenly": 5800, " laugh": 5801, " angle": 5802, " Got": 5803, " worried": 5804, "ое": 5805, " pap": 5806, " Mart": 5807, "eno": 5808, " battery": 5809, " пос": 5810, " lights": 5811, " arms": 5812, " Abs": 5813, "mes": 5814, "–": 5815, "useum": 5816, " tea": 5817, " Mic": 5818, " former": 5819, "ography": 5820, " applications": 5821, " Dire": 5822, "然": 5823, " feedback": 5824, "itchen": 5825, "yorum": 5826, "ued": 5827, "igt": 5828, "c6b0e1bb": 5829, "osition": 5830, " Del": 5831, "20ed9598eb": 5832, " Back": 5833, "ads": 5834, " prime": 5835, "주": 5836, "죠": 5837, "ב": 5838, " mut": 5839, "].": 5840, " З": 5841, "loc": 5842, "kin": 5843, " expert": 5844, " alright": 5845, "ungs": 5846, " supply": 5847, " leadership": 5848, " Fra": 5849, " typically": 5850, " sel": 5851, " trees": 5852, " 22": 5853, "har": 5854, " worst": 5855, " busy": 5856, "anto": 5857, " Up": 5858, " Bas": 5859, " presentation": 5860, " strange": 5861, " thin": 5862, "те": 5863, " vehicle": 5864, " до": 5865, "cellent": 5866, "70": 5867, " tired": 5868, " crisis": 5869, " tiny": 5870, "asy": 5871, " ran": 5872, "e987": 5873, " forces": 5874, " оч": 5875, " identify": 5876, " assess": 5877, "ите": 5878, "SE": 5879, " creative": 5880, "e79f": 5881, " department": 5882, " initial": 5883, "我們": 5884, " Dam": 5885, "akt": 5886, "vere": 5887, " infect": 5888, " pump": 5889, "ạ": 5890, " viel": 5891, " rare": 5892, " dot": 5893, "ashion": 5894, "empl": 5895, " flex": 5896, " kon": 5897, " truck": 5898, " lect": 5899, " plastic": 5900, "law": 5901, " likes": 5902, " rough": 5903, " MAT": 5904, "히": 5905, " commer": 5906, " asse": 5907, " cake": 5908, " actions": 5909, " adm": 5910, " otherwise": 5911, " Health": 5912, " colle": 5913, "e0b980e0b8": 5914, " rub": 5915, "得": 5916, "e694": 5917, " scr": 5918, " zum": 5919, " Him": 5920, " champ": 5921, " concerned": 5922, " 500": 5923, " plate": 5924, " Out": 5925, " donc": 5926, " equipment": 5927, " taught": 5928, "lled": 5929, "20ed99": 5930, "iva": 5931, " motor": 5932, "»": 5933, " guide": 5934, "e589": 5935, " stopped": 5936, " rat": 5937, " labor": 5938, " aim": 5939, " prepare": 5940, " ш": 5941, " shooting": 5942, "anned": 5943, "cript": 5944, " enemy": 5945, " depends": 5946, " nav": 5947, " ber": 5948, " lands": 5949, " univers": 5950, "iu": 5951, " factor": 5952, "oking": 5953, " carbon": 5954, "but": 5955, " Love": 5956, "eld": 5957, " ε": 5958, " ga": 5959, " és": 5960, " bread": 5961, " volt": 5962, "ed8a": 5963, " waste": 5964, " keeps": 5965, "所": 5966, " stor": 5967, " honor": 5968, " unless": 5969, " colum": 5970, " 대": 5971, " plants": 5972, "Yeah": 5973, " includes": 5974, "中": 5975, " ox": 5976, " peut": 5977, "만": 5978, "상": 5979, "istry": 5980, "ั": 5981, " Department": 5982, "anta": 5983, " finger": 5984, " stretch": 5985, " symbol": 5986, " neighbor": 5987, "e6ac": 5988, "간": 5989, "~~": 5990, " ты": 5991, " Aber": 5992, "kes": 5993, " massive": 5994, " CH": 5995, " Sal": 5996, "נ": 5997, "を": 5998, " dynam": 5999, "ache": 6000, " Pre": 6001, " monitor": 6002, "ented": 6003, "EO": 6004, " raised": 6005, "istics": 6006, "ک": 6007, " vou": 6008, "iten": 6009, "a1b0": 6010, " businesses": 6011, " earn": 6012, " mobile": 6013, "idade": 6014, " habe": 6015, "yr": 6016, "lict": 6017, " conduct": 6018, " federal": 6019, " wo": 6020, "bu": 6021, " none": 6022, " teachers": 6023, "20d8a7d984d8": 6024, "道": 6025, "idents": 6026, "ال": 6027, " trend": 6028, "еж": 6029, " album": 6030, " mich": 6031, "based": 6032, "ี": 6033, " transition": 6034, " но": 6035, "ões": 6036, "host": 6037, "edy": 6038, " Prof": 6039, "pan": 6040, "ijn": 6041, " capacity": 6042, "undo": 6043, "20d791d7": 6044, " breath": 6045, " мен": 6046, " mü": 6047, "ed99": 6048, " Aut": 6049, "hington": 6050, " nor": 6051, " gain": 6052, "point": 6053, "Yes": 6054, " ت": 6055, " Na": 6056, "år": 6057, " iç": 6058, " Mary": 6059, " spin": 6060, " anti": 6061, "吧": 6062, " somehow": 6063, " laws": 6064, " moments": 6065, " gre": 6066, " moves": 6067, " Would": 6068, " predict": 6069, " vra": 6070, " 2019": 6071, "b684": 6072, " fundament": 6073, "25": 6074, " pure": 6075, " wow": 6076, " island": 6077, " investment": 6078, " bath": 6079, " Ya": 6080, " harder": 6081, " tips": 6082, "e597": 6083, " electron": 6084, " Bob": 6085, " bond": 6086, "odies": 6087, " Aug": 6088, " gibt": 6089, " chair": 6090, " twice": 6091, "wood": 6092, " clar": 6093, " mask": 6094, " honestly": 6095, " 2018": 6096, "ties": 6097, "',": 6098, " pens": 6099, " surprised": 6100, " communication": 6101, "って": 6102, " spr": 6103, " whose": 6104, " stars": 6105, "d790d7": 6106, " ​": 6107, " properly": 6108, " grew": 6109, "osing": 6110, " divers": 6111, "AD": 6112, " empt": 6113, " expression": 6114, "ế": 6115, " Pal": 6116, "お": 6117, " justice": 6118, " pair": 6119, "wo": 6120, " seat": 6121, "orter": 6122, " links": 6123, " Mer": 6124, " rend": 6125, "ное": 6126, "upid": 6127, " Hel": 6128, " March": 6129, " Lo": 6130, "сь": 6131, " hasn": 6132, " evalu": 6133, "く": 6134, "天": 6135, "ilos": 6136, " funding": 6137, " ven": 6138, "uan": 6139, " Master": 6140, " Ol": 6141, " Fre": 6142, " yap": 6143, " Sir": 6144, "sch": 6145, " mistake": 6146, "aman": 6147, " dinner": 6148, " Washington": 6149, " organizations": 6150, " же": 6151, "aving": 6152, " ví": 6153, " birthday": 6154, " bear": 6155, " ف": 6156, " afford": 6157, " reven": 6158, " relationships": 6159, "rough": 6160, " Time": 6161, " tag": 6162, " Sun": 6163, "uary": 6164, " Po": 6165, "car": 6166, "abilities": 6167, " prison": 6168, " lic": 6169, "정": 6170, "idden": 6171, " species": 6172, "e9bb": 6173, " firm": 6174, " score": 6175, " dit": 6176, " spect": 6177, " pel": 6178, " complicated": 6179, "樣": 6180, " rank": 6181, " opposite": 6182, " picked": 6183, " кон": 6184, "eler": 6185, " mig": 6186, " Sl": 6187, " Net": 6188, " neck": 6189, " France": 6190, " technical": 6191, "ม": 6192, " miles": 6193, " primary": 6194, " sein": 6195, "ses": 6196, " laughs": 6197, "bra": 6198, "ści": 6199, "riage": 6200, " nic": 6201, "eters": 6202, " ê": 6203, "ologies": 6204, " IS": 6205, "rad": 6206, "udo": 6207, "ınd": 6208, "mar": 6209, " exch": 6210, " competition": 6211, " aussi": 6212, " Serv": 6213, " rent": 6214, " chocolate": 6215, " wieder": 6216, " nearly": 6217, " speech": 6218, " unc": 6219, " param": 6220, " British": 6221, " remain": 6222, "ก": 6223, "urt": 6224, " ع": 6225, " crack": 6226, "ails": 6227, " promise": 6228, " paying": 6229, "iß": 6230, " adapt": 6231, "ала": 6232, " movies": 6233, " wire": 6234, "9fac": 6235, "會": 6236, " terrible": 6237, " só": 6238, " perfectly": 6239, "呢": 6240, "ordin": 6241, " já": 6242, " impossible": 6243, " Three": 6244, " nh": 6245, " turning": 6246, "rum": 6247, " Bel": 6248, "igg": 6249, " responsible": 6250, "ий": 6251, " incredibly": 6252, "wi": 6253, "iano": 6254, " humans": 6255, " Ç": 6256, " settings": 6257, " joy": 6258, "oot": 6259, " dealing": 6260, "illed": 6261, " surround": 6262, " followed": 6263, " possibly": 6264, " initi": 6265, "sten": 6266, " pros": 6267, " candid": 6268, " assign": 6269, " violence": 6270, "Well": 6271, " rise": 6272, "PS": 6273, " também": 6274, " 들": 6275, "iance": 6276, "yan": 6277, " audio": 6278, " Bet": 6279, " Americans": 6280, " Ass": 6281, "ischen": 6282, "입": 6283, " ultimately": 6284, " polic": 6285, " majority": 6286, "這個": 6287, " Finally": 6288, "erap": 6289, " guard": 6290, " MATT": 6291, " brown": 6292, "ми": 6293, " cha": 6294, " Holy": 6295, " nervous": 6296, "ipping": 6297, "ęd": 6298, " Sa": 6299, "939ceb": 6300, "b680": 6301, "lie": 6302, "真": 6303, " nuc": 6304, " Apr": 6305, "e99b": 6306, " Korea": 6307, "ego": 6308, " Canada": 6309, " können": 6310, " compar": 6311, " ganz": 6312, " Mais": 6313, " theme": 6314, " ki": 6315, " drawing": 6316, "azon": 6317, " Off": 6318, "tt": 6319, " Wind": 6320, " todos": 6321, " obvious": 6322, "ная": 6323, "IM": 6324, " Р": 6325, "well": 6326, " blow": 6327, " hook": 6328, " circle": 6329, " 보": 6330, " architect": 6331, " Kr": 6332, " có": 6333, " protection": 6334, "ega": 6335, "e587": 6336, " watched": 6337, " answers": 6338, " diet": 6339, "ivo": 6340, " powder": 6341, " yours": 6342, " highest": 6343, "為": 6344, "FF": 6345, "e5ba": 6346, " boys": 6347, "öyle": 6348, " lunch": 6349, "謝": 6350, " II": 6351, " sets": 6352, " mole": 6353, "ہ": 6354, " winter": 6355, " lucky": 6356, " responsibility": 6357, " signal": 6358, " wondering": 6359, " ax": 6360, " cooking": 6361, "овор": 6362, "leg": 6363, " пот": 6364, " surprise": 6365, " democr": 6366, " loop": 6367, " jag": 6368, " curious": 6369, " marketing": 6370, "Н": 6371, "aron": 6372, " Apple": 6373, " virtual": 6374, " 198": 6375, "noon": 6376, " Met": 6377, "осто": 6378, "обы": 6379, "itu": 6380, " Aw": 6381, " buying": 6382, " restaurant": 6383, " Bud": 6384, " doubt": 6385, " grant": 6386, " verd": 6387, " cash": 6388, " faculty": 6389, "That": 6390, " Ein": 6391, "多": 6392, " wed": 6393, "itness": 6394, " Mag": 6395, "nel": 6396, " narr": 6397, " accident": 6398, " medium": 6399, "ements": 6400, " crow": 6401, "night": 6402, "일": 6403, "也": 6404, " library": 6405, "ают": 6406, " también": 6407, " reference": 6408, " fourth": 6409, "house": 6410, "vention": 6411, " filled": 6412, " Cour": 6413, "ibr": 6414, " ng": 6415, " developing": 6416, " provides": 6417, " poll": 6418, " traffic": 6419, "arently": 6420, "ட": 6421, " forms": 6422, " client": 6423, " gentle": 6424, " muss": 6425, " Congress": 6426, " Indian": 6427, "cean": 6428, " pil": 6429, " czy": 6430, "stood": 6431, "uty": 6432, " nä": 6433, " spending": 6434, " construction": 6435, "inaudible": 6436, " 마": 6437, "88ebacb4": 6438, " 생": 6439, "oma": 6440, "osen": 6441, "ago": 6442, " largest": 6443, "ㅋㅋ": 6444, " universe": 6445, "bes": 6446, "osa": 6447, " его": 6448, " dude": 6449, " MAR": 6450, " indeed": 6451, "ει": 6452, " managed": 6453, " Should": 6454, "So": 6455, " applied": 6456, " fairly": 6457, " Den": 6458, " analy": 6459, " constantly": 6460, "сп": 6461, "How": 6462, " Say": 6463, "encies": 6464, " PC": 6465, " eggs": 6466, "ர": 6467, " eth": 6468, " Então": 6469, "inar": 6470, "iot": 6471, " cz": 6472, " European": 6473, "え": 6474, " AM": 6475, " cá": 6476, " radio": 6477, "a78c": 6478, " hide": 6479, "今": 6480, " Start": 6481, " club": 6482, " Hope": 6483, " efforts": 6484, "lusion": 6485, " cities": 6486, "hone": 6487, " reached": 6488, " guid": 6489, "roid": 6490, " harm": 6491, " cutting": 6492, " bul": 6493, "18": 6494, "iest": 6495, " Mex": 6496, " iron": 6497, "知": 6498, " afternoon": 6499, " hall": 6500, " przy": 6501, " gosh": 6502, " influence": 6503, " вид": 6504, " increased": 6505, " Minister": 6506, " disci": 6507, " Peter": 6508, " vert": 6509, " menu": 6510, " selling": 6511, "urally": 6512, " quote": 6513, " ¡": 6514, " continues": 6515, "mpre": 6516, " şey": 6517, "itution": 6518, " нас": 6519, "cles": 6520, " German": 6521, "czy": 6522, " У": 6523, "Be": 6524, " kitchen": 6525, " Try": 6526, "ipe": 6527, " icon": 6528, "arp": 6529, " providing": 6530, " Trans": 6531, " technique": 6532, " här": 6533, " infrast": 6534, " susp": 6535, "ück": 6536, "icip": 6537, " Е": 6538, " cin": 6539, "ec96b4eb": 6540, " prz": 6541, " component": 6542, " bye": 6543, " Bible": 6544, "izer": 6545, "Ch": 6546, " solutions": 6547, " accompl": 6548, " 2016": 6549, "IE": 6550, " Ta": 6551, " assume": 6552, " liquid": 6553, " 먹": 6554, " quarter": 6555, " female": 6556, " Think": 6557, " status": 6558, "itute": 6559, " coach": 6560, " rein": 6561, " combination": 6562, "e8b7": 6563, " Ter": 6564, " objects": 6565, " district": 6566, " makeup": 6567, " murder": 6568, "was": 6569, "fen": 6570, " bowl": 6571, " published": 6572, " sports": 6573, "ち": 6574, " identity": 6575, " seemed": 6576, " acting": 6577, "лю": 6578, "rix": 6579, " upload": 6580, " hast": 6581, " boat": 6582, " Mod": 6583, "rio": 6584, " =": 6585, " cycle": 6586, "afb8": 6587, " loud": 6588, "usted": 6589, "coming": 6590, " 2017": 6591, " ont": 6592, " legisl": 6593, " struct": 6594, " Something": 6595, " conflict": 6596, " upper": 6597, " manager": 6598, " mort": 6599, " fra": 6600, " İ": 6601, " Mike": 6602, " Work": 6603, " nó": 6604, "phere": 6605, "20ec82aceb": 6606, " Land": 6607, " filter": 6608, " promot": 6609, "e6b0": 6610, "時": 6611, "95bc": 6612, " recording": 6613, "ם": 6614, " associated": 6615, " fuel": 6616, "under": 6617, " election": 6618, " employees": 6619, " Comp": 6620, "руг": 6621, " Wo": 6622, "rol": 6623, " saved": 6624, " Hon": 6625, " Vi": 6626, "分": 6627, "aca": 6628, "pret": 6629, " wet": 6630, " stupid": 6631, " lad": 6632, " fest": 6633, " wake": 6634, " ин": 6635, " greatest": 6636, " Jim": 6637, " seriously": 6638, "20ecb9": 6639, " feelings": 6640, " 300": 6641, "iation": 6642, " beauty": 6643, " 잘": 6644, " san": 6645, "93a0": 6646, " -(": 6647, " conscious": 6648, " дел": 6649, "bye": 6650, "e799": 6651, "Man": 6652, " lets": 6653, " shoes": 6654, "yd": 6655, "么": 6656, " disappe": 6657, " County": 6658, " Scott": 6659, " butt": 6660, " aquí": 6661, " config": 6662, "respond": 6663, "LAUGH": 6664, "a9eb8b88eb8ba4": 6665, " divided": 6666, " acqu": 6667, " zone": 6668, " komm": 6669, "ação": 6670, "짜": 6671, "cut": 6672, " 23": 6673, " maximum": 6674, "rog": 6675, " runs": 6676, " components": 6677, " arrived": 6678, " confident": 6679, "ров": 6680, " height": 6681, " proced": 6682, "EM": 6683, " Это": 6684, " Men": 6685, " talks": 6686, " confidence": 6687, " Chris": 6688, " leads": 6689, " nose": 6690, "fall": 6691, " Nothing": 6693, "iser": 6694, " independent": 6695, " minor": 6696, " sym": 6697, "len": 6698, "cience": 6699, " fashion": 6700, " sexual": 6701, " bun": 6702, "here": 6703, " soil": 6704, " diese": 6705, " shap": 6706, " empty": 6707, " journal": 6708, "agon": 6709, " Their": 6710, " weekend": 6711, "ít": 6712, " error": 6713, " nar": 6714, "ø": 6715, "e8a9": 6716, "ancy": 6717, " 않": 6718, " forest": 6719, " hacer": 6720, " missed": 6721, "さ": 6722, "可以": 6723, " evil": 6724, " storage": 6725, " singing": 6726, "inha": 6727, " knock": 6728, " impress": 6729, " очень": 6730, " Gold": 6731, " Sur": 6732, " Port": 6733, "去": 6734, " Lond": 6735, " fazer": 6736, "oty": 6737, "oto": 6738, " anx": 6739, " William": 6740, " existing": 6741, "place": 6742, " CD": 6743, "γ": 6744, " College": 6745, "lor": 6746, " East": 6747, "sen": 6748, "fach": 6749, "oft": 6750, " experienced": 6751, " loves": 6752, "imm": 6753, " poly": 6754, " esse": 6755, "eca4": 6756, " Grand": 6757, "e8a7": 6758, "cher": 6759, " victim": 6760, " Ges": 6761, "ль": 6762, "vision": 6763, " tall": 6764, " lens": 6765, " зна": 6766, " Both": 6767, "20ecb2": 6768, " sustain": 6769, " argument": 6770, " factors": 6771, " automatically": 6772, " fruit": 6773, " liber": 6774, " ale": 6775, " Press": 6776, " Ba": 6777, " го": 6778, " hundreds": 6779, "that": 6780, " Rich": 6781, " recipe": 6782, " IT": 6783, "e887": 6784, "ấ": 6785, " describe": 6786, " driver": 6787, " Oct": 6788, " Mat": 6789, "де": 6790, " meal": 6791, " latest": 6792, " therap": 6793, " compare": 6794, " Amazon": 6795, " 좀": 6796, " Russia": 6797, " string": 6798, " ka": 6799, " Commun": 6800, " dia": 6801, "Is": 6802, " millions": 6803, " corpor": 6804, " correspond": 6805, " fixed": 6806, " Joe": 6807, "َ": 6808, " views": 6809, " river": 6810, " studio": 6811, "igger": 6812, " flavor": 6813, " presence": 6814, " units": 6815, " saving": 6816, "avour": 6817, " pesso": 6818, "orith": 6819, " hers": 6820, " Nat": 6821, "asion": 6822, " Frank": 6823, "ош": 6824, "ły": 6825, "ed84": 6826, " einem": 6827, " functions": 6828, "uman": 6829, " north": 6830, " 전": 6831, " horse": 6832, "vid": 6833, " pleasure": 6834, "аш": 6835, "ées": 6836, "inda": 6837, " tail": 6838, " explore": 6839, "ST": 6840, " commercial": 6841, " During": 6842, "arl": 6843, "]:": 6844, "fit": 6845, " rates": 6846, "e6b3": 6847, "MUSIC": 6848, " housing": 6849, " einer": 6850, " situations": 6851, "e68b": 6852, " decre": 6853, " appropriate": 6854, "енно": 6855, "%.": 6856, " bac": 6857, " wat": 6858, "ensity": 6859, "äh": 6860, "known": 6861, "itz": 6862, " emotional": 6863, "ervation": 6864, " blind": 6865, "16": 6866, "ed83": 6867, "大家": 6868, " joined": 6869, " located": 6870, " см": 6871, "adas": 6872, "berg": 6873, " dess": 6874, " dear": 6875, "eden": 6876, "cos": 6877, " adopt": 6878, "100": 6879, "owe": 6880, " Check": 6881, "ismo": 6882, " simpl": 6883, " angry": 6884, " меня": 6885, " Cam": 6886, " pad": 6887, " attend": 6888, " sample": 6889, "日": 6890, "20ec9b": 6891, " IN": 6892, "ulous": 6893, " Sar": 6894, " Show": 6895, " infrastructure": 6896, " August": 6897, " lesson": 6898, " niet": 6899, "e68e": 6900, " foi": 6901, " broke": 6902, "tr": 6903, "e795": 6904, " 45": 6905, " gew": 6906, "уп": 6907, "ati": 6908, " maintain": 6909, " artists": 6910, "inger": 6911, "来": 6912, "erved": 6913, "IA": 6914, " equals": 6915, " operation": 6916, "illy": 6917, " 내": 6918, " crowd": 6919, " internal": 6920, " tests": 6921, " Rock": 6922, " Cons": 6923, " 너무": 6924, "war": 6925, " sou": 6926, " chart": 6927, " June": 6928, " April": 6929, "gent": 6930, " vent": 6931, " quand": 6932, " Korean": 6933, "imo": 6934, "e789": 6935, "iders": 6936, " mountain": 6937, "став": 6938, "月": 6939, "ijk": 6940, " discovered": 6941, " Sund": 6942, " Sil": 6943, " solo": 6944, "´": 6945, " schol": 6946, " Each": 6947, "e7b5": 6948, " bare": 6949, "20ed8c": 6950, " víde": 6951, " ingredients": 6952, " Its": 6953, "9dbceab3a0": 6954, "20ec8a": 6955, "ύ": 6956, " Lee": 6957, " scary": 6958, " princip": 6959, " spiritual": 6960, "ec85": 6961, " Hold": 6962, "沒有": 6963, " define": 6964, " Les": 6965, " Nor": 6966, " End": 6967, " blog": 6968, " Green": 6969, "ается": 6970, "part": 6971, "eles": 6972, "事": 6973, " Under": 6974, " parte": 6975, " 35": 6976, " sector": 6977, " Sept": 6978, " auth": 6979, "ம": 6980, "omin": 6981, " clients": 6982, " ci": 6983, " Friday": 6984, "eras": 6985, " twe": 6986, "ulated": 6987, " cultural": 6988, " сво": 6989, " 더": 6990, " ú": 6991, " parce": 6992, "ல": 6993, " tradition": 6994, " judge": 6995, " General": 6996, " determine": 6997, " Isn": 6998, " PL": 6999, "neath": 7000, " matters": 7001, "ed95b4ec": 7002, "!]": 7003, "ах": 7004, " pool": 7005, " variable": 7006, " vaccine": 7007, " caused": 7008, " west": 7009, " Yep": 7010, "fast": 7011, " philos": 7012, "hora": 7013, " continued": 7014, " unfortunately": 7015, "き": 7016, "e695": 7017, " flight": 7018, " wrap": 7019, " huh": 7020, " Absolutely": 7021, " pink": 7022, " remains": 7023, " né": 7024, " fle": 7025, " Sol": 7026, " losing": 7027, " algorith": 7028, " requires": 7029, " foundation": 7030, " Bur": 7031, " profession": 7032, " Mid": 7033, " 뭐": 7034, "can": 7035, " Mil": 7036, " younger": 7037, " appears": 7038, "term": 7039, "하고": 7040, "acle": 7041, " London": 7042, " engineering": 7043, "ย": 7044, " advent": 7045, "세요": 7046, " 기": 7047, " Maj": 7048, "рем": 7049, "ingu": 7050, " UK": 7051, "uro": 7052, "spe": 7053, " tent": 7054, " reported": 7055, " AL": 7056, "Hey": 7057, " 말": 7058, " dent": 7059, " Australia": 7060, " January": 7061, "b3b4": 7062, "agues": 7063, "arsh": 7064, "rig": 7065, " tiene": 7066, "ร": 7067, "ή": 7068, " machen": 7069, "unte": 7070, "ус": 7071, " electr": 7072, " tutorial": 7073, " placed": 7074, " 이거": 7075, " Council": 7076, "했": 7077, "b0eba6ac": 7078, "ahren": 7079, " 그래": 7080, " prove": 7081, "fol": 7082, " quer": 7083, " cheap": 7084, " Father": 7085, " Power": 7086, "939c": 7087, " purs": 7088, " esp": 7089, " Bre": 7090, "eab8b0eb": 7091, "omas": 7092, "想": 7093, "иль": 7094, " geht": 7095, "oster": 7096, "과": 7097, " files": 7098, " Ч": 7099, "bell": 7100, " whom": 7101, "20eb98": 7102, " excellent": 7103, " datab": 7104, " gö": 7105, " 진짜": 7106, " belief": 7107, "jet": 7108, " jack": 7109, " swim": 7110, "rial": 7111, "umin": 7112, "auc": 7113, " soll": 7114, " essential": 7115, "하는": 7116, " evol": 7117, "chaft": 7118, "aine": 7119, "thlet": 7120, " incor": 7121, " reports": 7122, " definition": 7123, "kel": 7124, " circum": 7125, " produced": 7126, " כ": 7127, "antic": 7128, "net": 7129, " award": 7130, " durch": 7131, " transp": 7132, " male": 7133, "a6aceb": 7134, " moon": 7135, " George": 7136, " flying": 7137, "ió": 7138, " sources": 7139, " plenty": 7140, " Democr": 7141, "RO": 7142, " 00": 7143, " secure": 7144, " Bir": 7145, "rain": 7146, " zur": 7147, " efficient": 7148, " repeat": 7149, " methods": 7150, " calm": 7151, " discussed": 7152, " 있는": 7153, " server": 7154, "anie": 7155, " Instead": 7156, " ideal": 7157, " conven": 7158, " hoping": 7159, " Tor": 7160, " depth": 7161, " heaven": 7162, "ENCE": 7163, " habit": 7164, "grad": 7165, " flag": 7166, " ine": 7167, " kh": 7168, " LI": 7169, " facing": 7170, " AU": 7171, " Tim": 7172, " gem": 7173, " Jul": 7174, " ela": 7175, "izza": 7176, " fellow": 7177, " quel": 7178, " spoke": 7179, " citizens": 7180, "uge": 7181, "都": 7182, " pages": 7183, " fasc": 7184, " religious": 7185, "aten": 7186, " chapter": 7187, " Val": 7188, " consult": 7189, " Mill": 7190, "gl": 7191, "oper": 7192, " infin": 7193, " marriage": 7194, " medicine": 7195, " дв": 7196, " dogs": 7197, " instrument": 7198, " Exact": 7199, "án": 7200, " 2021": 7201, " fer": 7202, " wealth": 7203, " grade": 7204, "ых": 7205, " crime": 7206, " thread": 7207, " essa": 7208, " wine": 7209, "cohol": 7210, "pha": 7211, "ง": 7212, "ogue": 7213, " insurance": 7214, "arrator": 7215, " September": 7216, " vid": 7217, " Spirit": 7218, " gest": 7219, " Russian": 7220, " properties": 7221, " article": 7222, " underneath": 7223, "yer": 7224, " joint": 7225, " relatively": 7226, " inch": 7227, " despite": 7228, " Gree": 7229, " classic": 7230, " supporting": 7231, " instruct": 7232, "lusive": 7233, " diagn": 7234, "e68a": 7235, " administration": 7236, "абот": 7237, " Open": 7238, "所以": 7239, " пок": 7240, " dollar": 7241, " consequ": 7242, "ober": 7243, " Germany": 7244, " terr": 7245, " QU": 7246, " Г": 7247, "e7be": 7248, " stronger": 7249, "ə": 7250, " ي": 7251, " iPhone": 7252, " fabric": 7253, "üh": 7254, " enem": 7255, "e6af": 7256, " subt": 7257, "EE": 7258, "onde": 7259, " crew": 7260, " removed": 7261, " lady": 7262, " potentially": 7263, " Но": 7264, "yal": 7265, " sympt": 7266, " army": 7267, " introduced": 7268, "tes": 7269, " aspects": 7270, "14": 7271, " Lou": 7272, " )": 7273, " deploy": 7274, "pet": 7275, " han": 7276, " Watch": 7277, " weapons": 7278, " phen": 7279, " register": 7280, " einfach": 7281, " sport": 7282, " bridge": 7283, " inner": 7284, " minimum": 7285, " witness": 7286, " eso": 7287, " village": 7288, " owner": 7289, "a6aceab3a0": 7290, " scream": 7291, "iled": 7292, " pitch": 7293, "bru": 7294, " advance": 7295, "不是": 7296, " suppose": 7297, " Att": 7298, "ется": 7299, " differences": 7300, "aked": 7301, " interpret": 7302, "æ": 7303, "iendo": 7304, " absol": 7305, " будет": 7306, "20ebb2": 7307, " trial": 7308, " thinks": 7309, "lying": 7310, "ception": 7311, " African": 7312, " chemical": 7313, " tape": 7314, " conversations": 7315, " distribution": 7316, "ti": 7317, " AI": 7318, " flash": 7319, " understood": 7320, " Government": 7321, "小": 7322, "!?": 7323, " Sk": 7324, "eab1b0eb": 7325, "rier": 7326, "TS": 7327, " According": 7328, "ют": 7329, " spons": 7330, "тобы": 7331, " valu": 7332, "erem": 7333, "ichtig": 7334, " resistance": 7335, " Gal": 7336, "gery": 7337, " begins": 7338, " advanced": 7339, " relevant": 7340, " politics": 7341, " Fam": 7342, " çok": 7343, " Never": 7344, "illing": 7345, " football": 7346, "ии": 7347, " ID": 7348, " Africa": 7349, " fingers": 7350, " боль": 7351, " á": 7352, " clip": 7353, " Lat": 7354, "や": 7355, " 지금": 7356, "esse": 7357, " voor": 7358, " aside": 7359, "e69e": 7360, " toward": 7361, " bat": 7362, " valid": 7363, " Mens": 7364, " completed": 7365, "ığ": 7366, " podcast": 7367, " Bon": 7368, "ے": 7369, " July": 7370, "ila": 7371, " package": 7372, " pulled": 7373, "char": 7374, " Mel": 7375, "ois": 7376, " south": 7377, "20eb94": 7378, " importance": 7379, " pushing": 7380, " isol": 7381, " stands": 7382, "cill": 7383, "e4bc": 7384, "20f09f": 7385, "ori": 7386, "각": 7387, " homes": 7388, " concerns": 7389, " biz": 7390, "e5bd": 7391, "bie": 7392, " bis": 7393, " gear": 7394, " MS": 7395, " hun": 7396, " Matt": 7397, "ả": 7398, "sey": 7399, " Secret": 7400, " odd": 7401, " Max": 7402, "olly": 7403, "ford": 7404, " SH": 7405, " replace": 7406, " navig": 7407, " ini": 7408, "ия": 7409, " giant": 7410, " mand": 7411, " Happ": 7412, "TION": 7413, "gun": 7414, "iamo": 7415, "입니다": 7416, " gap": 7417, " être": 7418, " classroom": 7419, " hyp": 7420, "aki": 7421, "e8ae": 7422, "isters": 7423, "acks": 7424, " со": 7425, " bug": 7426, " grav": 7427, "amin": 7428, " everyday": 7429, " 조": 7430, " garden": 7431, "cember": 7432, " esto": 7433, "嗎": 7434, "ج": 7435, "9fb0": 7436, "e581": 7437, " rom": 7438, " 제가": 7439, " falling": 7440, " fault": 7441, "elly": 7442, " chest": 7443, " ли": 7444, " potato": 7445, " buildings": 7446, " operating": 7447, " pare": 7448, "wr": 7449, "Don": 7450, " Four": 7451, " vul": 7452, " lá": 7453, " frust": 7454, " Dann": 7455, "oles": 7456, "nya": 7457, "20ecb6": 7458, " рас": 7459, "כ": 7460, " aí": 7461, "word": 7462, " weapon": 7463, " obt": 7464, " Fall": 7465, " Steve": 7466, " mixed": 7467, " pode": 7468, " AS": 7469, " Leg": 7470, " desc": 7471, " split": 7472, " emergency": 7473, " Sing": 7474, " profit": 7475, " typical": 7476, " Donc": 7477, " announce": 7478, " Tex": 7479, " sacr": 7480, "ternal": 7481, " committee": 7482, "igo": 7483, " diam": 7484, "phas": 7485, " defe": 7486, " Profess": 7487, " decl": 7488, "ур": 7489, "22": 7490, "olf": 7491, " Mond": 7492, "uy": 7493, " ay": 7494, " lem": 7495, " lovely": 7496, " Could": 7497, " guar": 7498, "HH": 7499, " carefully": 7500, " Listen": 7501, " кр": 7502, " youth": 7503, " Therefore": 7504, " dreams": 7505, " Jeff": 7506, "?]": 7507, "20eb88": 7508, "DA": 7509, " bodies": 7510, "aux": 7511, " techniques": 7512, " mechanism": 7513, "ד": 7514, " они": 7515, " desire": 7516, "î": 7517, " Vo": 7518, "ques": 7519, " уже": 7520, " Whoa": 7521, " Game": 7522, " hal": 7523, "anish": 7524, " practices": 7525, "500": 7526, " sorts": 7527, "ups": 7528, "ateful": 7529, " herself": 7530, " guitar": 7531, " propos": 7532, " sites": 7533, " beach": 7534, " ע": 7535, "第": 7536, "ну": 7537, " dram": 7538, " Nove": 7539, "VE": 7540, "rant": 7541, " plot": 7542, " 여기": 7543, " Ca": 7544, " established": 7545, " 2015": 7546, " inspired": 7547, " announced": 7548, "个": 7549, " тр": 7550, " 26": 7551, " voy": 7552, " tech": 7553, "적": 7554, " processes": 7555, "onto": 7556, " Pan": 7557, " rapid": 7558, "istan": 7559, " 197": 7560, " religion": 7561, " 28": 7562, " smile": 7563, " bab": 7564, " ک": 7565, " Vir": 7566, " schedule": 7567, " execut": 7568, " pron": 7569, "э": 7570, " Ну": 7571, "music": 7572, "원": 7573, " gan": 7574, "신": 7575, " default": 7576, " bem": 7577, "ى": 7578, " forced": 7579, " Obviously": 7580, " stone": 7581, " tie": 7582, " drinking": 7583, " served": 7584, "Cause": 7585, " conference": 7586, " Exactly": 7587, "ト": 7588, "a09c": 7589, "와": 7590, " Ra": 7591, " fake": 7592, " diff": 7593, "ど": 7594, " challenging": 7595, " 중": 7596, "χ": 7597, "什麼": 7598, " intelligence": 7599, "rete": 7600, " studying": 7601, " appoint": 7602, " tan": 7603, " им": 7604, " curve": 7605, " Team": 7606, " Az": 7607, " зд": 7608, " Music": 7609, "field": 7610, "iration": 7611, " failed": 7612, " novel": 7613, " differently": 7614, " escape": 7615, " Yo": 7616, " October": 7617, "ıyor": 7618, " described": 7619, " convert": 7620, "acement": 7621, " hotel": 7622, "isation": 7623, " suis": 7624, "け": 7625, "子": 7626, "怎": 7627, " walked": 7628, "200": 7629, " neighborhood": 7630, "isp": 7631, " Los": 7632, " hidden": 7633, " 27": 7634, "ле": 7635, " phr": 7636, " Island": 7637, " Street": 7638, "enda": 7639, "hips": 7640, "osure": 7641, " defined": 7642, "ว": 7643, " vida": 7644, " label": 7645, " Everybody": 7646, " joke": 7647, "iao": 7648, "ان": 7649, " athlet": 7650, "...\"": 7651, " Fire": 7652, "Do": 7653, " defense": 7654, " entertain": 7655, "át": 7656, " policies": 7657, " alcohol": 7658, " Engine": 7659, " gal": 7660, " Jud": 7661, " volunte": 7662, "icks": 7663, "eta": 7664, "agt": 7665, " ו": 7666, " mö": 7667, "13": 7668, " encoun": 7669, " eh": 7670, " orange": 7671, " absor": 7672, " spaces": 7673, " November": 7674, "구": 7675, "iat": 7676, " tam": 7677, "cknow": 7678, " storm": 7679, " Director": 7680, " pregn": 7681, " 일": 7682, " оп": 7683, " resource": 7684, " bard": 7685, "new": 7686, " December": 7687, "uits": 7688, " weil": 7689, " construct": 7690, "si": 7691, "nic": 7692, " flour": 7693, " restrict": 7694, "üt": 7695, " entirely": 7696, " breaking": 7697, "entlich": 7698, " twenty": 7699, " causes": 7700, " elev": 7701, " Spr": 7702, " Internet": 7703, " kiss": 7704, " operations": 7705, "szy": 7706, "20eb8a": 7707, " scientists": 7708, " grown": 7709, " owners": 7710, "outs": 7711, " courses": 7712, " usual": 7713, " inn": 7714, " transm": 7715, "ño": 7716, " nuest": 7717, "ков": 7718, " category": 7719, " Life": 7720, " Plus": 7721, " atmos": 7722, "while": 7723, " records": 7724, " değ": 7725, "다고": 7726, "20ec82aceb9e": 7727, " requirements": 7728, "inn": 7729, " immig": 7730, " deeper": 7731, "e7b4": 7732, " apps": 7733, " colleagues": 7734, "ży": 7735, " offers": 7736, " tá": 7737, " column": 7738, "laud": 7739, "IR": 7740, " Ms": 7741, " exchange": 7742, "las": 7743, " Law": 7744, " Jon": 7745, "isse": 7746, "rogen": 7747, " moi": 7748, "ח": 7749, " sending": 7750, " hello": 7751, "ее": 7752, "ść": 7753, " succeed": 7754, " suffering": 7755, " advert": 7756, " 주": 7757, "知道": 7758, " reco": 7759, "ını": 7760, " ком": 7761, "alley": 7762, " failure": 7763, "iej": 7764, " 때": 7765, " drugs": 7766, " cuando": 7767, "20ec96b4eb96": 7768, " About": 7769, " quando": 7770, " Fed": 7772, "17": 7773, "Sh": 7774, "inho": 7775, " Sunday": 7776, " Phil": 7777, " academic": 7778, " Inc": 7779, " mainten": 7780, "出": 7781, " reward": 7782, "erd": 7783, " committed": 7784, "스": 7785, "гр": 7786, " standards": 7787, " kal": 7788, " intention": 7789, " Zh": 7790, " acknow": 7791, "e4bf": 7792, " ===": 7793, "ogy": 7794, "e5a7": 7795, " films": 7796, "isk": 7797, " teeth": 7798, " struggle": 7799, "rd": 7800, "uen": 7801, " diss": 7802, " Dar": 7803, "amy": 7804, " enemies": 7805, " veloc": 7806, " Call": 7807, "umbs": 7808, "итель": 7809, " ocean": 7810, "éd": 7811, "우": 7812, " trem": 7813, "iento": 7814, "ешь": 7815, "fficient": 7816, " bottle": 7817, " institution": 7818, "esty": 7819, " Han": 7820, "hab": 7821, "늘": 7822, " arrest": 7823, "還": 7824, " letters": 7825, "ounce": 7826, "ed8c": 7827, "An": 7828, " creates": 7829, " clock": 7830, " debt": 7831, " ancient": 7832, "ifications": 7833, "gi": 7834, "But": 7835, " Tu": 7836, "kl": 7837, " border": 7838, " ook": 7839, " Bay": 7840, "esta": 7841, "20ebb3b4ec": 7842, " wra": 7843, "prene": 7844, " 게": 7845, "angle": 7846, " believed": 7847, "iency": 7848, "aka": 7849, " critic": 7850, " bomb": 7851, " ham": 7852, " Л": 7853, "국": 7854, " Guys": 7855, "rosoft": 7856, " crim": 7857, "etch": 7858, "ARR": 7859, " sight": 7860, "ина": 7861, " ain": 7862, "ố": 7863, "ische": 7864, " aux": 7865, " numer": 7866, " survive": 7867, "All": 7868, "BC": 7869, " sz": 7870, "9faceb": 7871, " jam": 7872, " Court": 7873, " alles": 7874, " trigger": 7875, "О": 7876, " format": 7877, " decades": 7878, " ces": 7879, " signs": 7880, " robot": 7881, " Church": 7882, " az": 7883, " soup": 7884, " Texas": 7885, "uten": 7886, " чтобы": 7887, " neighb": 7888, "96d794": 7889, " communicate": 7890, "š": 7891, " elimin": 7892, " frequency": 7893, "hern": 7894, "idos": 7895, " emphas": 7896, " messages": 7897, " gender": 7898, " Wenn": 7899, " во": 7900, " prices": 7901, "olo": 7902, " пон": 7903, "wing": 7904, " Fil": 7905, "аем": 7906, " Cur": 7907, " false": 7908, " fields": 7909, " sé": 7910, "24": 7911, " mac": 7912, "uş": 7913, " layers": 7914, " advoc": 7915, "wan": 7916, " kar": 7917, " Ş": 7918, " decor": 7919, " walls": 7920, "oe": 7921, "issions": 7922, " resol": 7923, "ע": 7924, " Carol": 7925, " Vide": 7926, "leep": 7927, " YOU": 7928, " flip": 7929, " surgery": 7930, " chop": 7931, "UR": 7932, ".,": 7933, " agency": 7934, " wanting": 7935, " solar": 7936, " horiz": 7937, " Adam": 7938, " staying": 7939, "olic": 7940, " grateful": 7941, " remark": 7942, " technologies": 7943, " protein": 7944, "心": 7945, "дел": 7946, " Mont": 7947, " shoulder": 7948, " za": 7949, "rey": 7950, " Ooh": 7951, " sty": 7952, "icar": 7953, "отр": 7954, " route": 7955, " Turn": 7956, " bom": 7957, " debate": 7958, " possibility": 7959, "20ed95b4ec": 7960, "apa": 7961, " invent": 7962, "ürlich": 7963, " profile": 7964, " senior": 7965, "ppy": 7966, "vas": 7967, " mundo": 7968, "atever": 7969, " apparently": 7970, "ener": 7971, "א": 7972, "e7ad": 7973, " precis": 7974, " align": 7975, " knife": 7976, " Robert": 7977, "e58b": 7978, " fool": 7979, " invite": 7980, "using": 7981, " circumst": 7982, " capture": 7983, " dough": 7984, " Sand": 7985, " seu": 7986, " News": 7987, " bite": 7988, " neut": 7989, "wide": 7990, " lecture": 7991, " 또": 7992, " originally": 7993, " choices": 7994, " Gar": 7995, " verse": 7996, " lit": 7997, " 196": 7998, "할": 7999, " measures": 8000, "ções": 8001, "water": 8002, "rive": 8003, " zijn": 8004, "ed81": 8005, " Bus": 8006, " heb": 8007, "ех": 8008, " Kar": 8009, " Não": 8010, " killing": 8011, "ப": 8012, " mirror": 8013, "mod": 8014, " mol": 8015, " creation": 8016, " estim": 8017, " atmosphere": 8018, " gam": 8019, " tables": 8020, "isi": 8021, " Little": 8022, " tas": 8023, " Ele": 8024, "él": 8025, " scenes": 8026, " tone": 8027, " affected": 8028, " AUDI": 8029, " Brown": 8030, "If": 8031, " ه": 8032, " Daniel": 8033, "真的": 8034, "quer": 8035, "chi": 8036, "ed9598eb": 8037, " mistakes": 8038, " sla": 8039, "イ": 8040, " entr": 8041, " если": 8042, " shout": 8043, " portion": 8044, "ї": 8045, " previously": 8046, "ộ": 8047, " пред": 8048, "ось": 8049, " heads": 8050, "e78e": 8051, "e5ad": 8052, "國": 8053, " grass": 8054, "ะ": 8055, "cribe": 8056, " qué": 8057, " Spanish": 8058, " offered": 8059, " было": 8060, " Cloud": 8061, " vector": 8062, " Huh": 8063, " kad": 8064, "ifts": 8065, " ν": 8066, " hungry": 8067, "С": 8068, " parall": 8069, "AND": 8070, " vídeo": 8071, "izz": 8072, " occup": 8073, "20ed94": 8074, " seek": 8075, "hes": 8076, " doors": 8077, " houses": 8078, " considering": 8079, " graduate": 8080, " fulf": 8081, "行": 8082, "e8a3": 8083, " extreme": 8084, " flowers": 8085, "itate": 8086, " Pri": 8087, " fundamental": 8088, "час": 8089, "说": 8090, " texture": 8091, "8d98": 8092, " AND": 8093, "ற": 8094, " Tem": 8095, " nada": 8096, "진": 8097, " celebrate": 8098, "ums": 8099, " pill": 8100, " или": 8101, "going": 8102, " hip": 8103, " supported": 8104, " perman": 8105, " agreement": 8106, " tym": 8107, "20eb91": 8108, "93a4ec9db4": 8109, " purchase": 8110, "ed94": 8111, " Plan": 8112, "egen": 8113, " recover": 8114, "PU": 8115, " Microsoft": 8116, "duc": 8117, " holes": 8118, " dropped": 8119, " pig": 8120, " ending": 8121, " attacks": 8122, "bec": 8123, " ren": 8124, " rapp": 8125, " 우리": 8126, " terror": 8127, " י": 8128, " edit": 8129, " ao": 8130, ".</": 8131, " 2000": 8132, " Union": 8133, " scientific": 8134, " punch": 8135, "ortion": 8136, " puts": 8137, " Monday": 8138, " Jer": 8139, "EC": 8140, " matrix": 8141, " institutions": 8142, " mont": 8143, " exhib": 8144, " speaker": 8145, " meters": 8146, ".]": 8147, " serving": 8148, " database": 8149, " LAU": 8150, " damn": 8151, " poder": 8152, "!!!!": 8153, " 했": 8154, " AUDIENCE": 8155, " jun": 8156, " AC": 8157, " Ital": 8158, "sec": 8159, " Young": 8160, "ruck": 8161, "ouve": 8162, "ค": 8163, "e788": 8164, "20eba78ceb": 8165, "ading": 8166, "uration": 8167, " PS": 8168, "К": 8169, " Unf": 8170, "e881": 8171, "oria": 8172, " manif": 8173, " sentence": 8174, " signed": 8175, "BS": 8176, " proof": 8177, " Muslim": 8178, " nuclear": 8179, " говор": 8180, " woll": 8181, " favour": 8182, " WH": 8183, " vulner": 8184, " closely": 8185, " index": 8186, "тер": 8187, "achel": 8188, " capable": 8189, " Bes": 8190, " croch": 8191, "ekt": 8192, " sheet": 8193, " sees": 8194, " naturally": 8195, " England": 8196, " participate": 8197, " exists": 8198, " sharp": 8199, "py": 8200, " breakfast": 8201, "bow": 8202, " twist": 8203, "e7a7": 8204, "inating": 8205, "oti": 8206, " Found": 8207, " deux": 8208, " selected": 8209, "전": 8210, "osis": 8211, " presented": 8212, " linear": 8213, "20eab4": 8214, " kun": 8215, "點": 8216, "ông": 8217, " będ": 8218, " tempor": 8219, " cable": 8220, " просто": 8221, "ке": 8222, " там": 8223, " winning": 8224, "能": 8225, "98eb8f84": 8226, " 2014": 8227, "20ec97aceb": 8228, " UN": 8229, " Click": 8230, " prepar": 8231, " TO": 8232, " sua": 8233, " Ham": 8234, " lä": 8235, " absolute": 8236, " engaged": 8237, "如": 8238, " Hmm": 8239, " dash": 8240, "TA": 8241, "ños": 8242, " spo": 8243, "生": 8244, ")]": 8245, " tested": 8246, " blank": 8247, " reject": 8248, " assim": 8249, " rear": 8250, " Str": 8251, " crash": 8252, " наш": 8253, "ится": 8254, " colon": 8255, " Unt": 8256, " Ce": 8257, " acid": 8258, "e997": 8259, " kit": 8260, "ibilities": 8261, "uto": 8262, " valuable": 8263, "list": 8264, " parties": 8265, " Mm": 8266, " colour": 8267, " cham": 8268, " steel": 8269, " Imp": 8270, " funds": 8271, " DNA": 8272, " Ken": 8273, "inde": 8274, "해서": 8275, "ッ": 8276, " Happy": 8277, " Use": 8278, " Light": 8279, " lip": 8280, " authority": 8281, " Long": 8282, " Iran": 8283, " ell": 8284, " coordin": 8285, " subm": 8286, " recorded": 8287, "уш": 8288, " delta": 8289, " reform": 8290, " Still": 8291, " oppon": 8292, " allowing": 8293, " patterns": 8294, " letting": 8295, " sleeping": 8296, "Okay": 8297, " pizza": 8298, " ś": 8299, " дол": 8300, " talent": 8301, "ensions": 8302, " environmental": 8303, " professor": 8304, " shots": 8305, " contains": 8306, "ugar": 8307, "yo": 8308, "8f99": 8309, " sequence": 8310, "ια": 8311, "ader": 8312, "e9a0": 8313, "ач": 8314, "نا": 8315, " Ik": 8316, " tous": 8317, "uries": 8318, " pounds": 8319, " external": 8320, "iments": 8321, " vraiment": 8322, "실": 8323, " happiness": 8324, " prze": 8325, "estic": 8326, " establish": 8327, " Flor": 8328, " rig": 8329, " honey": 8330, " pul": 8331, " symptoms": 8332, " brows": 8333, "ели": 8334, " το": 8335, " shirt": 8336, " Techn": 8337, " Program": 8338, "ему": 8339, " upset": 8340, " guest": 8341, "burg": 8342, " unlike": 8343, " somewhat": 8344, " hanging": 8345, " rum": 8347, " photograph": 8348, " Li": 8349, "回": 8350, " stable": 8351, " voltage": 8352, " Ell": 8353, " entreprene": 8354, "uses": 8355, "assen": 8356, "acb8": 8357, " 많이": 8358, " ghost": 8359, " sagen": 8360, " combat": 8361, " gör": 8362, " Cap": 8363, " são": 8364, " Kat": 8365, " forma": 8366, " summ": 8367, " march": 8368, " vast": 8369, "ük": 8370, " commitment": 8371, "imos": 8372, "Let": 8373, " dedicated": 8374, "iste": 8375, "lay": 8376, "這樣": 8377, " topics": 8378, " machines": 8379, " Paris": 8380, " 이런": 8381, " mini": 8382, " markets": 8383, " ko": 8384, "δ": 8385, "ville": 8386, " goodness": 8387, " framework": 8388, "ulture": 8389, " basket": 8390, "essa": 8391, "аци": 8392, "uster": 8393, "20eab9": 8394, "但": 8395, " extent": 8396, " Menschen": 8397, " consistent": 8398, " auto": 8399, "rip": 8400, " mere": 8401, "ை": 8402, "є": 8403, " elle": 8404, "8c80eb": 8405, "oken": 8406, " pulling": 8407, " cow": 8408, "outhern": 8409, " meetings": 8410, " cada": 8411, "ным": 8412, "iente": 8413, " bast": 8414, "aning": 8415, " focusing": 8416, "road": 8417, " roof": 8418, " Professor": 8419, " SP": 8420, "раз": 8421, " nood": 8422, " 400": 8423, " 이제": 8424, "있": 8425, " Mount": 8426, "ейчас": 8427, " א": 8428, "Why": 8429, "מ": 8430, "ında": 8431, " positions": 8432, "ème": 8433, "e78f": 8434, " друг": 8435, "iyor": 8436, " passing": 8437, " assemb": 8438, " smoke": 8439, " til": 8440, " museum": 8441, "Д": 8442, " Person": 8443, "ним": 8444, "leich": 8445, " intent": 8446, " sque": 8447, " craft": 8448, "수": 8449, "orsun": 8450, " 150": 8451, " brothers": 8452, "vor": 8453, " Speaker": 8454, "icians": 8455, " officer": 8456, " için": 8457, " теб": 8458, " scratch": 8459, " generate": 8460, "yi": 8461, " emotions": 8462, "aus": 8463, "치": 8464, "45": 8465, " Link": 8466, " Real": 8467, " ate": 8468, " над": 8469, " native": 8470, "ệ": 8471, "ıy": 8472, " enorm": 8473, " blocks": 8474, " faces": 8475, "acc": 8476, "iveness": 8477, " inches": 8478, "uis": 8479, "heit": 8480, " streets": 8481, " probability": 8482, "asi": 8483, " impl": 8484, "20e0a4": 8485, "urday": 8486, " faut": 8487, "omy": 8488, " pip": 8489, " illust": 8490, "ய": 8491, " Jun": 8492, " lying": 8493, " memories": 8495, " practical": 8496, "iana": 8497, "onces": 8498, " viewers": 8499, " Thomas": 8500, "e68c": 8501, " Girl": 8502, " Whether": 8503, " innovation": 8504, " disappoint": 8505, "My": 8506, " winner": 8507, " ig": 8508, " ratio": 8509, " Blue": 8510, " Sub": 8511, " documents": 8512, " formula": 8513, "20eba9": 8514, "ъ": 8515, " appeared": 8516, "var": 8517, "andon": 8518, " spray": 8519, "mak": 8520, " QUES": 8521, "KE": 8522, " wedding": 8523, "Re": 8524, "аться": 8525, " uno": 8526, " gall": 8527, "터": 8528, "cio": 8529, "cers": 8530, " мне": 8531, " pepper": 8532, "した": 8533, " Febru": 8534, " alternative": 8535, " fu": 8536, " Basically": 8537, " Smith": 8538, " gate": 8539, " Tam": 8540, " Whatever": 8541, " approxim": 8542, " concert": 8543, " juice": 8544, " Especially": 8545, " dynamic": 8546, "Qu": 8547, "onder": 8548, "ivery": 8549, " bang": 8550, " rul": 8551, " Party": 8552, " scholars": 8553, " crying": 8554, "ją": 8555, "Т": 8556, " QUESTION": 8557, "rid": 8558, " accurate": 8559, "ço": 8560, " Cool": 8561, "coin": 8562, " 상": 8563, " Fo": 8564, " pró": 8565, " Roman": 8566, " Пр": 8567, " checking": 8568, "?'": 8569, " attached": 8570, " Islam": 8571, " experts": 8572, "ק": 8573, " Const": 8574, "ран": 8575, " shadow": 8576, " delay": 8577, "В": 8578, " orient": 8579, "eb82": 8580, "ellen": 8581, " así": 8582, "кий": 8583, " historical": 8584, " uncom": 8585, "omp": 8586, "hm": 8587, " bil": 8588, " planned": 8589, " Unfortunately": 8590, " Windows": 8591, "ش": 8592, " encounter": 8593, " 생각": 8594, " regarding": 8595, "arrass": 8596, " recovery": 8597, " Hur": 8598, " Emp": 8599, " sí": 8600, "하게": 8601, " defend": 8602, " cet": 8603, "asse": 8604, "단": 8605, "okes": 8606, " remote": 8607, " س": 8608, " arts": 8609, "isco": 8610, "aucoup": 8611, " Mexico": 8612, " пом": 8613, " chosen": 8614, "emat": 8615, "oding": 8616, " flower": 8617, "standing": 8618, " Associ": 8619, "ummy": 8620, "ILL": 8621, " cameras": 8622, "再": 8623, " 我": 8624, " Arab": 8625, " Sum": 8626, " tego": 8627, " criminal": 8628, "iform": 8629, " stack": 8630, "성": 8631, " Donald": 8632, " Old": 8633, " dust": 8634, " Jose": 8635, " hem": 8636, " increases": 8637, "osta": 8638, " dying": 8639, " River": 8640, " moist": 8641, "тов": 8642, "ares": 8643, " discipl": 8644, "rait": 8645, " Has": 8646, "ygen": 8647, " Tre": 8648, "20ebb4": 8649, " languages": 8650, " Hen": 8651, " 36": 8652, " Disney": 8653, "ints": 8654, " algo": 8655, " foods": 8656, " setup": 8657, "lan": 8658, " effectively": 8659, " wherever": 8660, "最": 8661, " unter": 8662, "formation": 8663, " hits": 8664, " principle": 8665, " tastes": 8666, "a788": 8667, " treated": 8668, " resolution": 8669, " privile": 8670, " IP": 8671, "ebb0": 8672, " territ": 8673, " powers": 8674, "20ed83": 8675, " Vict": 8676, " bother": 8677, " Chair": 8678, " muscle": 8679, " sale": 8680, " decent": 8681, " coup": 8682, " Squ": 8683, " coast": 8684, " rod": 8685, " Franc": 8686, " bathroom": 8687, " shopping": 8688, " может": 8689, " iş": 8690, " Stay": 8691, "grade": 8692, " formed": 8693, " baş": 8694, " brill": 8695, "jour": 8696, "ed96": 8697, "因": 8698, "wie": 8699, "icate": 8700, " ​​": 8701, " Norm": 8702, "e0a5": 8703, " mainly": 8704, " Space": 8705, " tremend": 8706, "iti": 8707, "வ": 8708, "UT": 8709, "Music": 8710, " February": 8711, " contrast": 8712, "对": 8713, "esting": 8714, " δ": 8715, "inging": 8716, " ن": 8717, "ssen": 8718, " Home": 8719, " shell": 8720, " Hay": 8721, " aller": 8722, " Ap": 8723, " Western": 8724, " Word": 8725, " PLAY": 8726, "20eb85": 8727, " Aqu": 8728, " entry": 8729, " launched": 8730, " Mem": 8731, " Pour": 8732, " zwe": 8733, " Someone": 8734, "inge": 8735, " Prob": 8736, "mble": 8737, " Rel": 8738, "uru": 8739, " rhy": 8740, " gig": 8741, " engagement": 8742, "üş": 8743, "ょ": 8744, " offering": 8745, "whel": 8746, " actor": 8747, " 對": 8748, "APP": 8749, "west": 8750, " Roy": 8751, " returned": 8752, " silver": 8753, "rating": 8754, " estar": 8755, " ske": 8756, " ti": 8757, "ication": 8758, " annoy": 8759, " deeply": 8760, "용": 8761, " natürlich": 8762, "ELL": 8763, " Cath": 8764, " rail": 8765, "нов": 8766, " prayer": 8767, "col": 8768, "GB": 8769, " Так": 8770, " gla": 8771, " Water": 8772, "ять": 8773, " Non": 8774, "ôt": 8775, "agers": 8776, " hug": 8777, " doctors": 8778, "ancing": 8779, " Talk": 8780, "zing": 8781, " hadn": 8782, " lui": 8783, " até": 8784, " 그리고": 8785, "까지": 8786, "ici": 8787, " incorpor": 8788, " Di": 8789, "zil": 8790, "anya": 8791, "aa85": 8792, " »": 8793, "35": 8794, " beer": 8795, " beaucoup": 8796, " MC": 8797, " ears": 8798, "ogen": 8799, " Quest": 8800, "eda": 8801, "本": 8802, " Saturday": 8803, " falls": 8804, "ston": 8805, "bles": 8806, " thus": 8807, " 네": 8808, "ไ": 8809, " therm": 8810, " diversity": 8811, " soy": 8812, "azu": 8813, "imp": 8814, " television": 8815, "過": 8816, " של": 8817, " wur": 8818, " edges": 8819, " lessons": 8820, " Aud": 8821, "して": 8822, "voir": 8823, "amento": 8824, " explained": 8825, " она": 8826, " temps": 8827, "ώ": 8828, "They": 8829, " surprising": 8830, "ания": 8831, " Drag": 8832, "面": 8833, " Cle": 8834, " nam": 8835, " люд": 8836, " hardware": 8837, " thumbs": 8838, " και": 8839, " Top": 8840, " å": 8841, "e999": 8842, "ור": 8843, " 그래서": 8844, " Budd": 8845, "thern": 8846, " interests": 8847, "ذ": 8848, " developers": 8849, " hitting": 8850, " opposed": 8851, " hearts": 8852, " Android": 8853, " Hand": 8854, " represents": 8855, "glich": 8856, "트": 8857, " 32": 8858, " domin": 8859, " Ann": 8860, "一下": 8861, " été": 8862, " zoom": 8863, " które": 8864, " adults": 8865, " ordered": 8866, " picking": 8867, " Hong": 8868, " filming": 8869, "思": 8870, " seed": 8871, " AT": 8872, " calculate": 8873, " когда": 8874, " Os": 8875, "icit": 8876, " remaining": 8877, " segu": 8878, "û": 8879, " 오늘": 8880, " arrive": 8881, " congr": 8882, " grande": 8883, " healthcare": 8884, " можно": 8885, "SA": 8886, "este": 8887, " awareness": 8888, " squared": 8889, "xture": 8890, " Being": 8891, " soldiers": 8892, "уб": 8893, " revolution": 8894, " trained": 8895, "enden": 8896, "e8b0": 8897, " dancing": 8898, " installed": 8899, "prise": 8900, " veter": 8901, " menos": 8902, "nell": 8903, " Brother": 8904, " nun": 8905, " importantly": 8906, "alled": 8907, "iał": 8908, "abled": 8909, " System": 8910, " Vol": 8911, " eld": 8912, " emotion": 8913, "ican": 8914, " Bank": 8915, "ikes": 8916, " vlog": 8917, " воз": 8918, " puede": 8919, "오": 8920, " teen": 8921, " severe": 8922, "%,": 8923, " cleaning": 8924, "zą": 8925, "9790": 8926, " Through": 8927, " Set": 8928, "EP": 8929, "\"?": 8930, " Mother": 8931, " figured": 8932, " mud": 8933, " і": 8934, " Office": 8935, " raw": 8936, " destroyed": 8937, "enta": 8938, " aggress": 8939, " ос": 8940, "20ebaaa8eb": 8941, "ää": 8942, " AR": 8943, " correctly": 8944, "前": 8945, " stir": 8946, " extract": 8947, " vehicles": 8948, "開": 8949, " Run": 8950, " врем": 8951, " parallel": 8952, " lag": 8953, "ju": 8954, " dare": 8955, " Mot": 8956, "ono": 8957, " beings": 8958, " stro": 8959, " excuse": 8960, " alpha": 8961, " asks": 8962, " pocket": 8963, "...?": 8964, " kita": 8965, "üm": 8966, " appearance": 8967, "ordan": 8968, " insert": 8969, " нач": 8970, "9b69": 8971, " tempo": 8972, " facility": 8973, " visible": 8974, "e592": 8975, " Science": 8976, "uros": 8977, " في": 8978, " Van": 8979, " tension": 8980, " 할": 8981, " delivery": 8982, " stim": 8983, " survey": 8984, " Gra": 8985, " bol": 8986, "e6a0": 8987, " weiter": 8988, "ßen": 8989, "一個": 8990, " proceed": 8991, " impressive": 8992, " Voc": 8993, "iously": 8994, " да": 8995, "hale": 8996, "och": 8997, " glue": 8998, "phet": 8999, "cont": 9000, " fits": 9001, " boxes": 9002, " controls": 9003, " Child": 9004, " scenario": 9005, " trop": 9006, " processing": 9007, " только": 9008, " birds": 9009, " Chic": 9010, " нап": 9011, " 2013": 9012, " müssen": 9013, " Jag": 9014, " są": 9015, " perce": 9016, "reh": 9017, " Fore": 9018, " confused": 9019, "aire": 9020, " accomplish": 9021, " casa": 9022, "clock": 9023, " influen": 9024, " RO": 9025, " bone": 9026, "ician": 9027, " SC": 9028, " strategies": 9029, "gh": 9030, "ду": 9031, " itu": 9032, " personality": 9033, " bardzo": 9034, " accepted": 9035, " stom": 9036, "iev": 9037, " Hist": 9038, " Aus": 9039, "20ebb094eb": 9040, "ATOR": 9041, "意": 9042, "oir": 9043, " magaz": 9044, " explan": 9045, " corn": 9046, " ils": 9047, " circuit": 9048, " gay": 9049, "hop": 9050, "ゃ": 9051, " equival": 9052, " dieser": 9053, "erves": 9054, "comes": 9055, "klich": 9056, "20eb958ceb": 9057, "abet": 9058, " exha": 9059, " manner": 9060, " ♪♪": 9061, "éc": 9062, "äl": 9063, " confirm": 9064, " entered": 9065, "emplo": 9066, " Far": 9067, " où": 9068, "essions": 9069, " nurs": 9070, " então": 9071, " abandon": 9072, "life": 9073, " wis": 9074, "Narrator": 9075, " 어": 9076, "There": 9077, " Ram": 9078, "aste": 9079, " attrib": 9080, " Ay": 9081, " mesmo": 9082, " να": 9083, "e9ab": 9084, "enses": 9085, " crop": 9086, " здесь": 9087, " Until": 9088, "stein": 9089, " oven": 9090, " suspect": 9091, "het": 9092, " puis": 9093, " carried": 9094, "ég": 9095, " Dev": 9096, "ems": 9097, "reens": 9098, "berry": 9099, " templ": 9100, " Bit": 9101, " variables": 9102, " overwhel": 9103, "με": 9104, " initially": 9105, "았": 9106, "othing": 9107, "еть": 9108, " Hill": 9109, " depart": 9110, " myst": 9111, "azz": 9112, " fluid": 9113, " DC": 9114, " clinical": 9115, " Ryan": 9116, " Florida": 9117, " Tak": 9118, " anxiety": 9119, "bro": 9120, " circumstances": 9121, " ك": 9122, " existence": 9123, " tong": 9124, " 2012": 9125, " Secretary": 9126, " spicy": 9127, " [(": 9128, " Without": 9129, " facts": 9130, " tons": 9131, "App": 9132, " Stand": 9133, " lies": 9134, " AD": 9135, "win": 9136, "τε": 9137, "applause": 9138, "IP": 9139, "sta": 9140, " Sup": 9141, "phones": 9142, "9e91": 9143, "pie": 9144, " Pot": 9145, " NO": 9146, "起": 9147, " מ": 9148, " Да": 9149, "icas": 9150, " Ir": 9151, " pushed": 9152, " uncle": 9153, " من": 9154, " lon": 9155, " principles": 9156, " International": 9157, " Ö": 9158, "ž": 9159, " saya": 9160, " 고": 9161, " rib": 9162, " paste": 9163, " warning": 9164, " musical": 9165, " agreed": 9166, "орм": 9167, " garlic": 9168, " oxygen": 9169, "예": 9170, "Al": 9171, " 맞": 9172, "elines": 9173, "LAUSE": 9174, "美": 9175, "gypt": 9176, "GE": 9177, "cker": 9178, "tu": 9179, " shel": 9180, " stayed": 9181, " год": 9182, " lapt": 9183, " Martin": 9184, " invited": 9185, " confir": 9186, " embarrass": 9187, "aciones": 9188, " Camp": 9189, " holds": 9190, "axy": 9191, " dive": 9192, "uckles": 9193, " boost": 9194, " wür": 9195, "stal": 9196, " работ": 9197, " déc": 9198, " officers": 9199, "20ec9584eb": 9200, "ologist": 9201, "d79ed7": 9202, " seeds": 9203, " buff": 9204, " updates": 9205, "わ": 9206, "ded": 9207, " friendly": 9208, " council": 9209, " Probably": 9210, " piano": 9211, " reduced": 9212, "τα": 9213, " authent": 9214, " explos": 9215, "pass": 9216, " Hit": 9217, "jud": 9218, " Nav": 9219, "omi": 9220, " commission": 9221, " gym": 9222, "П": 9223, " pon": 9224, "рос": 9225, " interface": 9226, " structures": 9227, " Jen": 9228, " yok": 9229, " meu": 9230, "지만": 9231, "ned": 9232, " Wie": 9233, " identified": 9234, " channels": 9235, "ına": 9236, " philosop": 9237, "keit": 9238, " bits": 9239, "entes": 9240, " frag": 9241, " Kind": 9242, " doch": 9243, " sne": 9244, "inding": 9245, " Jewish": 9246, "орош": 9247, " fue": 9248, "方": 9249, "20ed8f": 9250, " mı": 9251, " keine": 9252, " locations": 9253, "用": 9254, " meter": 9255, " beef": 9256, "じ": 9257, " manip": 9258, " sono": 9259, "zzle": 9260, "e7b6": 9261, " pes": 9262, " horrible": 9263, " Sn": 9264, " factory": 9265, " fifth": 9266, " cooked": 9267, " mood": 9268, " velocity": 9269, " oblig": 9270, " connections": 9271, "ğim": 9272, " 공": 9273, " domain": 9274, " applying": 9275, " ridic": 9276, " cel": 9277, " childhood": 9278, " Test": 9279, "ratulations": 9280, " Virgin": 9281, " CEO": 9282, " пл": 9283, " algorithm": 9284, " interaction": 9285, "aga": 9286, " kidding": 9287, " tomato": 9288, " continuing": 9289, "lad": 9290, "stream": 9291, "оже": 9292, " 영": 9293, "елов": 9294, "BA": 9295, " nap": 9296, " Nobody": 9297, " thumb": 9298, " ON": 9299, " rush": 9300, "DR": 9301, " strike": 9302, " evolution": 9303, "iche": 9304, "20ecbb": 9305, " 그런": 9306, "ات": 9307, " ak": 9308, " windows": 9309, " excess": 9310, "ない": 9311, " conclud": 9312, " episodes": 9313, " struggling": 9314, " Dat": 9315, "9dbceb": 9316, " keys": 9317, " kle": 9318, "果": 9319, " vegetables": 9320, "ystem": 9321, "ência": 9322, "rick": 9323, " revenue": 9324, " Haw": 9325, " lan": 9326, "antes": 9327, "iniz": 9328, "これ": 9329, "ист": 9330, " sup": 9331, "a9b4ec849c": 9332, " momento": 9333, "isto": 9334, "つ": 9335, " Eric": 9336, "iors": 9337, "baj": 9338, " introduction": 9339, "irty": 9340, " deck": 9341, "real": 9342, " Mario": 9343, " loving": 9344, "ด": 9345, " supports": 9346, "ичес": 9347, " incident": 9348, "utch": 9349, "uv": 9350, " boom": 9351, "ерь": 9352, " нуж": 9353, " combined": 9354, " Lin": 9355, "23": 9356, "oration": 9357, "nte": 9358, " sor": 9359, " dirty": 9360, "ifer": 9361, " API": 9362, " collaboration": 9363, "iable": 9364, " priority": 9365, " Ale": 9366, " Prin": 9367, " Exc": 9368, " vais": 9369, " gran": 9370, " stood": 9371, " recru": 9372, " Mur": 9373, "esis": 9374, "asp": 9375, " locked": 9376, " Pero": 9377, " Harry": 9378, " tudo": 9379, " Ten": 9380, "ص": 9381, "forcement": 9382, "))": 9383, "oli": 9384, " 인": 9385, " suppl": 9386, " crochet": 9387, " phenomen": 9388, "los": 9389, "athan": 9390, " Supp": 9391, " embr": 9392, " bek": 9393, " Zeit": 9394, "gend": 9395, " rooms": 9396, "aabd": 9397, "VER": 9398, "nych": 9399, " dont": 9400, " cabin": 9401, " accounts": 9402, " Easter": 9403, "ול": 9404, "ル": 9405, " facilities": 9406, "beit": 9407, " linked": 9408, " Ger": 9409, " programming": 9410, "otic": 9411, " drama": 9412, " 29": 9413, "20ed81": 9414, " instructions": 9415, " importante": 9416, " waves": 9417, " aid": 9418, "CK": 9419, "겠습니다": 9420, " Mir": 9421, " tid": 9422, " Hot": 9423, " arrange": 9424, " Baby": 9425, " tack": 9426, " щ": 9427, "ed9d": 9428, " vertical": 9429, " heel": 9430, " Cut": 9431, " narrow": 9432, " Ari": 9433, " knee": 9434, " Brazil": 9435, " Five": 9436, " posted": 9437, "UD": 9438, " rolling": 9439, "θ": 9440, " claims": 9441, " Ins": 9442, "OK": 9443, "いう": 9444, "uin": 9445, " Institute": 9446, " intense": 9447, "iar": 9448, " Nick": 9449, " selection": 9450, " legend": 9451, " uniform": 9452, "ún": 9453, " studied": 9454, "太": 9455, " Х": 9456, " 알": 9457, "gers": 9458, " dow": 9459, " CS": 9460, " agent": 9461, " Auf": 9462, "覺": 9463, " jog": 9464, " aircraft": 9465, "님": 9466, " vit": 9467, "uls": 9468, " segment": 9469, " orders": 9470, " Class": 9471, " apolog": 9472, " platforms": 9473, " myth": 9474, "аже": 9475, " Book": 9476, " sensitive": 9477, " получ": 9478, " damit": 9479, " Capt": 9480, "sole": 9481, " architecture": 9482, " Wil": 9483, " inher": 9484, "cap": 9485, " Boy": 9486, "次": 9487, " burning": 9488, " Public": 9489, " behalf": 9490, " 위": 9491, " therapy": 9492, "ubscribe": 9493, " involve": 9494, " exposed": 9495, "iş": 9496, "们": 9497, "être": 9498, " toil": 9499, " sink": 9500, "pir": 9501, "e583": 9502, "II": 9503, " agencies": 9504, " q": 9505, " Down": 9506, "auf": 9507, " 맛": 9508, "・・": 9509, " proc": 9510, "oked": 9511, " stores": 9512, "power": 9513, " Things": 9514, " accessible": 9515, " też": 9516, " Educ": 9517, " speakers": 9518, " Sarah": 9519, "9494": 9520, " diverse": 9521, "잖": 9522, " Ult": 9523, "ày": 9524, " Chicago": 9525, "She": 9526, "athy": 9527, " enable": 9528, " trading": 9529, " muscles": 9530, "e69b": 9531, " Care": 9532, " Ur": 9533, " Scot": 9534, " phrase": 9535, "ENT": 9536, " 경": 9537, " Jac": 9538, "pack": 9539, " determined": 9540, "ünd": 9541, " negoti": 9542, " vidé": 9543, " roz": 9544, " Sus": 9545, " riding": 9546, "hmen": 9547, " Def": 9548, " Cre": 9549, "ス": 9550, " Wall": 9551, "igan": 9552, " sempre": 9553, "ід": 9554, " driven": 9555, " footage": 9556, " fond": 9557, " Way": 9558, "äm": 9559, " Obama": 9560, " Service": 9561, " 75": 9562, " Dark": 9563, "20eab7bceb": 9564, " Cat": 9565, "ط": 9566, "e98c": 9567, " jug": 9568, " etwas": 9569, " breathing": 9570, "ể": 9571, "其": 9572, " Web": 9573, "之": 9574, "走": 9575, " fois": 9576, " lighting": 9577, " DA": 9578, " obst": 9579, " leur": 9580, "現": 9581, " Egypt": 9582, " Army": 9583, "icide": 9584, "ати": 9585, "20eb8ba4eb": 9586, " apartment": 9587, " chief": 9588, " Wed": 9589, " networks": 9590, " batt": 9591, "e6b8": 9592, " Luc": 9593, " nicely": 9594, " verb": 9595, "ิ": 9596, "ecb6": 9597, "osit": 9598, " revealed": 9599, " tat": 9600, " tied": 9601, "ề": 9602, " animation": 9603, " roles": 9604, "ec8aa4ed": 9605, " versions": 9606, "чит": 9607, " tasks": 9608, "afbc": 9609, " resc": 9610, "she": 9611, " loose": 9612, "2063e1bb": 9613, " coisa": 9614, " alert": 9615, " nin": 9616, " SAM": 9617, " trabaj": 9618, "irus": 9619, "TH": 9620, "ơ": 9621, "ogether": 9622, " Tai": 9623, " figures": 9624, " את": 9625, " creep": 9626, " investigation": 9627, " recommended": 9628, " Ak": 9629, " residents": 9630, "ство": 9631, "sect": 9632, "ание": 9633, " minds": 9634, "uing": 9635, "e5b1": 9636, "owing": 9637, " nog": 9638, " raz": 9639, "ار": 9640, " quot": 9641, " их": 9642, " sed": 9643, " applaud": 9644, " coverage": 9645, "vol": 9646, " Rec": 9647, "ě": 9648, " всё": 9649, " expecting": 9650, " operate": 9651, " conver": 9652, " Such": 9653, " Rad": 9654, " Prime": 9655, " purple": 9656, " 2010": 9657, "20ec9588eb": 9658, " exem": 9659, " comparison": 9660, " landscape": 9661, " neither": 9662, " Eh": 9663, "eb85": 9664, " stomach": 9665, " caso": 9666, "ân": 9667, " percentage": 9668, "wich": 9669, "itan": 9670, " kl": 9671, " expans": 9672, " الم": 9673, " occasion": 9674, "rets": 9675, "igning": 9676, " kilomet": 9677, "跟": 9678, " gust": 9679, "cze": 9680, " urban": 9681, " agric": 9682, " assistance": 9683, " surf": 9684, "imeter": 9685, " petit": 9686, " assessment": 9687, " manual": 9688, " improved": 9689, "bst": 9690, " pilot": 9691, " Mars": 9692, " viele": 9693, " Congratulations": 9694, " argue": 9695, " wirklich": 9696, " clicking": 9697, "RIS": 9698, " logo": 9699, " outcome": 9700, " Central": 9701, " Ji": 9702, " gaming": 9703, " conserv": 9704, " ultimate": 9705, " Ve": 9706, " Wal": 9707, "aro": 9708, "感": 9709, "star": 9710, " consumer": 9711, " traveling": 9712, "imer": 9713, " 1000": 9714, "ник": 9715, " principal": 9716, " sake": 9717, "ів": 9718, " mouse": 9719, "arios": 9720, " relation": 9721, "自": 9722, " moral": 9723, "啦": 9724, " theta": 9725, "wy": 9726, " kam": 9727, " eig": 9728, " golden": 9729, "פ": 9730, " ampl": 9731, " vu": 9732, "str": 9733, "rors": 9734, " whereas": 9735, "izar": 9736, " administr": 9737, " nós": 9738, " Pret": 9739, " Acad": 9740, "anging": 9741, "bage": 9742, "était": 9743, "uri": 9744, " healing": 9745, " tipo": 9746, " marry": 9747, "ув": 9748, " estate": 9749, "uu": 9750, "ec94": 9751, " Best": 9752, " suffer": 9753, " 194": 9754, " bacter": 9755, " Вот": 9756, " Om": 9757, " dz": 9758, "e8b6": 9759, "eca6": 9760, " oldu": 9761, " physically": 9762, " Louis": 9763, "etime": 9764, "case": 9765, " pier": 9766, "제": 9767, "van": 9768, " assets": 9769, "20eb81": 9770, "vet": 9771, "иб": 9772, " promote": 9773, " congrat": 9774, "uesday": 9775, " duty": 9776, " Video": 9777, "خ": 9778, " Johnson": 9779, "ktion": 9780, " Você": 9781, "》": 9782, " ai": 9783, " annual": 9784, " Josh": 9785, "itte": 9786, " JO": 9787, " slides": 9788, " anc": 9789, "b984": 9790, "teen": 9791, " carrying": 9792, "lymp": 9793, "eding": 9794, " fro": 9795, " admit": 9796, "rer": 9797, " officials": 9798, "ptions": 9799, "gal": 9800, " heute": 9801, " voices": 9802, " balls": 9803, " guests": 9804, "anner": 9805, "《": 9806, "isher": 9807, " MR": 9808, " Richard": 9809, " roughly": 9810, "lı": 9811, " victory": 9812, " algun": 9813, " Mrs": 9814, "ście": 9815, " Uk": 9816, " ey": 9817, " Wars": 9818, " branch": 9819, "asty": 9820, " Prince": 9821, "ект": 9822, " recognized": 9823, " mucho": 9824, " Leave": 9825, "connect": 9826, " spell": 9827, " touched": 9828, " agenda": 9829, "e8be": 9830, "aria": 9831, " Kong": 9832, "oga": 9833, " parameters": 9834, "eb8ba4eb": 9835, " instant": 9836, " regul": 9837, "Con": 9838, " editor": 9839, " Dist": 9840, " unknown": 9841, " punish": 9842, " expectations": 9843, " crypt": 9844, " divide": 9845, "aken": 9846, " Mess": 9847, " hyper": 9848, " Project": 9849, "iki": 9850, " agora": 9851, " abuse": 9852, " causing": 9853, " convin": 9854, " LA": 9855, " concentration": 9856, " breaks": 9857, "urer": 9858, " concrete": 9859, " formal": 9860, " beta": 9861, "itors": 9862, " Champ": 9863, " heading": 9864, " Blo": 9865, " prend": 9866, " Senate": 9867, " adventure": 9868, "oso": 9869, " opens": 9870, " PLAYING": 9871, " SU": 9872, "uren": 9873, "ikt": 9874, " люб": 9875, " Follow": 9876, " Biden": 9877, "eln": 9878, " Sky": 9879, "eting": 9880, " Ext": 9881, "ную": 9882, " 왜": 9883, " shr": 9884, "ella": 9885, " Div": 9886, " transformation": 9887, " household": 9888, "etry": 9889, "e8a1": 9890, " Desp": 9891, " courage": 9892, " parking": 9893, " että": 9894, "cal": 9895, "lyn": 9896, " laid": 9897, " tries": 9898, "irts": 9899, "iga": 9900, " recall": 9901, "ifier": 9902, "ρα": 9903, " aan": 9904, " buttons": 9905, " reaching": 9906, " 근데": 9907, " spark": 9908, " Social": 9909, " еще": 9910, " canal": 9911, " criter": 9912, " który": 9913, " tenemos": 9914, "82ac": 9915, " нет": 9916, " tube": 9917, "acles": 9918, "иш": 9919, " değil": 9920, " stamp": 9921, " infl": 9922, " ahora": 9923, " trail": 9924, " mixture": 9925, " Roll": 9926, " routine": 9927, " county": 9928, " enjoying": 9929, "ность": 9930, "eres": 9931, " purposes": 9932, " Santa": 9933, " breast": 9934, "äng": 9935, " writer": 9936, "e58c": 9937, "ро": 9938, " nem": 9939, "icos": 9940, "аст": 9941, " detailed": 9942, " reverse": 9943, " Ready": 9944, " distract": 9945, " Alors": 9946, "utter": 9947, " deserve": 9948, " Ron": 9949, "ном": 9950, " observ": 9951, " logic": 9952, " Py": 9953, " Kevin": 9954, "そう": 9955, "a5b4": 9956, "ين": 9957, " ska": 9958, " tact": 9959, " holiday": 9960, " bump": 9961, " мог": 9962, " deix": 9963, "ed85": 9964, " worship": 9965, "Cl": 9966, " suck": 9967, " себ": 9968, " applause": 9969, " Ep": 9970, " мо": 9971, " patch": 9972, "ậ": 9973, " ladies": 9974, " broadcast": 9975, " illeg": 9976, " narrative": 9977, "ossa": 9978, "ARRATOR": 9979, " sang": 9980, " movements": 9981, " partnership": 9982, " organized": 9983, " node": 9984, "estyle": 9985, " Meg": 9986, " industrial": 9987, " gol": 9988, " boring": 9989, "加": 9990, "ご": 9991, " cuts": 9992, " recon": 9993, "asa": 9994, " impression": 9995, "운": 9996, "gie": 9997, "MA": 9998, "86b5": 9999, " editing": 10000, "ront": 10001, " follows": 10002, " Italian": 10003, "род": 10004, " 같은": 10005, " 방": 10006, " particles": 10007, " Board": 10008, "ית": 10009, "jun": 10010, "ronic": 10011, " ej": 10012, " τη": 10013, "וד": 10014, "cion": 10015, "itty": 10016, " Tuesday": 10017, "umes": 10018, " Prot": 10019, "eder": 10020, " pessoas": 10021, " нов": 10022, " skip": 10023, " objective": 10024, "ías": 10025, " desk": 10026, " Looks": 10027, "unden": 10028, " primarily": 10029, "imento": 10030, " reporting": 10031, " hace": 10032, " checked": 10033, "e998": 10034, "20ebb3b4eb": 10035, " smells": 10036, " actors": 10037, " Asia": 10038, "ilà": 10039, " receiving": 10040, " taxes": 10041, " grace": 10042, " competitive": 10043, " division": 10044, " esper": 10045, " wheels": 10046, " kommt": 10047, " tremendous": 10048, " espe": 10049, "...)": 10050, " 입": 10051, " listed": 10052, "äll": 10053, " unus": 10054, " Holly": 10055, " guidance": 10056, " cub": 10057, " intellect": 10058, " был": 10059, " regardless": 10060, " Stan": 10061, "没": 10062, " conclusion": 10063, "acağ": 10064, " lol": 10065, " Bat": 10066, " manifest": 10067, " Chief": 10068, " shame": 10069, " outcomes": 10070, " mail": 10071, " kur": 10072, "ικ": 10073, "etz": 10074, " preparing": 10075, "27": 10076, " Queen": 10077, "ள": 10078, " 비": 10079, " tiss": 10080, " consciousness": 10081, " pants": 10082, " melt": 10083, "ucht": 10084, "inh": 10085, "워": 10086, " votre": 10087, " module": 10088, "owy": 10089, " monster": 10090, "20eb86": 10091, " electronic": 10092, " centre": 10093, " stops": 10094, " tou": 10095, "20ebad": 10096, " lamb": 10097, " consequences": 10098, " straw": 10099, " imper": 10100, " extend": 10101, "った": 10102, " answered": 10103, " Mah": 10104, " LAURA": 10105, "ifting": 10106, "uate": 10107, "先": 10108, " USB": 10109, " Andrew": 10110, "カ": 10111, " Fred": 10112, " DE": 10113, " Georg": 10114, "e7bb": 10115, "ình": 10116, " drawn": 10117, " lips": 10118, "bir": 10119, " mayor": 10120, "imi": 10121, " encore": 10122, "吃": 10123, "fortable": 10124, "ursday": 10125, " Form": 10126, " blame": 10127, " shower": 10128, " container": 10129, "sters": 10130, "udes": 10131, " Tay": 10132, "ล": 10133, " 예": 10134, " vom": 10135, " bass": 10136, " Lab": 10137, "issa": 10138, " dimension": 10139, " executive": 10140, " Rom": 10141, "게요": 10142, " Doctor": 10143, " delivered": 10144, " gang": 10145, " cer": 10146, " pit": 10147, "eli": 10148, " extraord": 10149, "jar": 10150, " deriv": 10151, " illness": 10152, " guns": 10153, " 2011": 10154, " airport": 10155, "Е": 10156, " attitude": 10157, " grat": 10158, " Wr": 10159, " NARRATOR": 10160, " 요": 10161, " renew": 10162, " cosa": 10163, " controlled": 10164, "ommy": 10165, "onds": 10166, " ese": 10167, "äch": 10168, " vend": 10169, "dam": 10170, " argu": 10171, " acceler": 10172, " nail": 10173, "iene": 10174, "생": 10175, " encont": 10176, "esearch": 10177, "e9a1": 10178, " goods": 10179, " fishing": 10180, "APPLAUSE": 10181, " NAS": 10182, "ection": 10183, " temple": 10184, "liche": 10185, " keyboard": 10186, "等": 10187, " desde": 10188, " educational": 10189, " Night": 10190, "33": 10191, " breathe": 10192, "lichen": 10193, "thm": 10194, "ière": 10195, "บ": 10196, "ları": 10197, " ali": 10198, " compos": 10199, " sensor": 10200, "20ebb680eb": 10201, " newsp": 10202, " Bund": 10203, " Mi": 10204, " performing": 10205, " drum": 10206, "BE": 10207, " pork": 10208, " coal": 10209, "enger": 10210, " ram": 10211, " 번": 10212, "然後": 10213, "иров": 10214, " Pop": 10215, " phones": 10216, " facil": 10217, " tracks": 10218, "onte": 10219, " organic": 10220, " dialogue": 10221, " Having": 10222, " Post": 10223, " payment": 10224, " array": 10225, " intended": 10226, "ús": 10227, " bars": 10228, " reviews": 10229, "lands": 10230, " kingdom": 10231, " stages": 10232, " mountains": 10233, " dun": 10234, " decir": 10235, "č": 10236, " banks": 10237, " throwing": 10238, " 못": 10239, " anger": 10240, " сейчас": 10241, " distur": 10242, " humanity": 10243, " eles": 10244, " shoulders": 10245, " Perfect": 10246, " fancy": 10247, " brilliant": 10248, " inspiration": 10249, "hmm": 10250, "快": 10251, " lid": 10252, "UL": 10253, " må": 10254, "indi": 10255, "e888": 10256, " shield": 10257, "20ec98a4eb": 10258, "CT": 10259, "agine": 10260, "uber": 10261, " BR": 10262, " questo": 10263, " зак": 10264, " Know": 10265, " tang": 10266, "합니다": 10267, " barely": 10268, " SE": 10269, " margin": 10270, "rei": 10271, "атель": 10272, " contr": 10273, " và": 10274, " legit": 10275, "И": 10276, "kins": 10277, "ред": 10278, " Ash": 10279, " advis": 10280, " Greek": 10281, "ук": 10282, " shake": 10283, "idades": 10284, "ась": 10285, " convention": 10286, " contest": 10287, "MS": 10288, " Year": 10289, " representation": 10290, "inden": 10291, "endar": 10292, " prost": 10293, " Human": 10294, " Cy": 10295, "anged": 10296, "PA": 10297, " axis": 10298, " theore": 10299, "atz": 10300, " 하고": 10301, " els": 10302, " Research": 10303, " benefic": 10304, " density": 10305, "indo": 10306, "으": 10307, "imdi": 10308, " researchers": 10309, "거든": 10310, "ighs": 10311, "dan": 10312, " dice": 10313, " maar": 10314, " submit": 10315, " dumb": 10316, " bij": 10317, "away": 10318, " Pass": 10319, " extension": 10320, " crush": 10321, " covering": 10322, "edi": 10323, "born": 10324, "inations": 10325, " сдел": 10326, "вер": 10327, " Otherwise": 10328, "istant": 10329, "айте": 10330, " tanto": 10331, " performed": 10332, " зап": 10333, "alo": 10334, " Foundation": 10335, " protocol": 10336, " Zo": 10337, "may": 10338, " hack": 10339, " buddy": 10340, "made": 10341, " ads": 10342, " fascinating": 10343, " equivalent": 10344, "gel": 10345, " arc": 10346, " челов": 10347, " proposed": 10348, " notre": 10349, "anges": 10350, " counsel": 10351, "alla": 10352, " 31": 10353, "weet": 10354, "ș": 10355, " electricity": 10356, " tox": 10357, "ład": 10358, "20ecb4": 10359, " difficulty": 10360, "a0d799": 10361, "nesday": 10362, "ись": 10363, " alleg": 10364, " GO": 10365, " quit": 10366, " Herr": 10367, " están": 10368, " girlfriend": 10369, " teng": 10370, "ificial": 10371, " Jam": 10372, " cancel": 10373, " frequently": 10374, "IV": 10375, "實": 10376, " closing": 10377, " decade": 10378, " represented": 10379, " Canad": 10380, " которые": 10381, " estamos": 10382, " Thursday": 10383, " Ga": 10384, " Live": 10385, "lem": 10386, "bble": 10387, "SON": 10388, " 2008": 10389, " dich": 10390, " Awesome": 10391, " concepts": 10392, "PEAK": 10393, " literature": 10394, " Olymp": 10395, "лад": 10396, " nost": 10397, "vit": 10398, " Enter": 10399, "orders": 10400, "icking": 10401, "niej": 10402, " euch": 10403, " Though": 10404, " bags": 10405, " limits": 10406, " stake": 10407, "83a5": 10408, " oc": 10409, " Vis": 10410, " 120": 10411, " nue": 10412, " conce": 10413, " disag": 10414, "e7a8": 10415, " anticip": 10416, "a088": 10417, "sl": 10418, " voting": 10419, " exposure": 10420, " Community": 10421, " Justice": 10422, "orney": 10423, "szyst": 10424, " fried": 10425, "ec8b9ceb": 10426, " Win": 10427, " @": 10428, " Hopefully": 10429, "esz": 10430, " monde": 10431, " combine": 10432, "gment": 10433, " recommendations": 10434, " pregnant": 10435, "식": 10436, "raf": 10437, " lu": 10438, "老": 10439, "什么": 10440, "door": 10441, "азыв": 10442, "uego": 10443, " improvement": 10444, " trim": 10445, " eigen": 10446, " approximately": 10447, " вам": 10448, "awa": 10449, " соб": 10450, " coron": 10451, " ongoing": 10452, " hes": 10453, " injury": 10454, " frank": 10455, " kadar": 10456, "rency": 10457, " Color": 10458, " Gru": 10459, " dip": 10460, "ры": 10461, " tears": 10462, "gt": 10463, " PD": 10464, " pause": 10465, "osc": 10466, " usted": 10467, " Woo": 10468, " wię": 10469, "見": 10470, " denn": 10471, " Pet": 10472, " overcome": 10473, " 내가": 10474, " Move": 10475, " license": 10476, " repeated": 10477, "ே": 10478, " categories": 10479, " noodles": 10480, " flood": 10481, " Mass": 10482, " nuts": 10483, " Jess": 10484, " Ih": 10485, " chances": 10486, "9098": 10487, " donde": 10488, "IG": 10489, " andere": 10490, " bones": 10491, "작": 10492, " efficiency": 10493, " moder": 10494, "roat": 10495, " 이게": 10496, "iller": 10497, " omega": 10498, " пов": 10499, " Group": 10500, " producing": 10501, "amo": 10502, " participants": 10503, "upp": 10504, "ifice": 10505, " fortun": 10506, "ietnam": 10507, "acak": 10508, " Ko": 10509, "miş": 10510, " jail": 10511, " Jones": 10512, "śmy": 10513, " Deuts": 10514, " briefly": 10515, " Tal": 10516, " Perhaps": 10517, " Rub": 10518, " Kn": 10519, "다는": 10520, "ré": 10521, " vocês": 10522, " Charles": 10523, "ете": 10524, "riers": 10525, " heal": 10526, "antee": 10527, " democracy": 10528, " loan": 10529, " chef": 10530, "ям": 10531, " uncomfortable": 10532, " etern": 10533, "apping": 10534, " repair": 10535, "rot": 10536, " Tar": 10537, " covers": 10538, "oming": 10539, " Eth": 10540, " έ": 10541, "чно": 10542, " afterwards": 10543, " вер": 10544, " daha": 10545, " knees": 10546, " ordinary": 10547, "ül": 10548, "gas": 10549, " ticket": 10550, " 저는": 10551, " 있습니다": 10552, "chte": 10553, "Mr": 10554, " sist": 10555, "hui": 10556, "eab7b8eb": 10557, "여": 10558, " vary": 10559, " memor": 10560, " controller": 10561, " będzie": 10562, " minister": 10563, "ג": 10564, "flow": 10565, "AH": 10566, " tower": 10567, "e790": 10568, " scar": 10569, "情": 10570, " Pen": 10571, " país": 10572, "ט": 10573, "ec9db8eb": 10574, " energ": 10575, " sword": 10576, " papers": 10577, "ила": 10578, " Wednesday": 10579, " Force": 10580, " extraordinary": 10581, " Lake": 10582, "20eab080eb": 10583, " Beaut": 10584, " reasonable": 10585, " contribute": 10586, " pleased": 10587, " updated": 10588, " più": 10589, "elo": 10590, " significantly": 10591, " bot": 10592, " generations": 10593, " protected": 10594, "哈": 10595, " hiding": 10596, " Ill": 10597, " neutral": 10598, "],": 10599, "το": 10600, " tongue": 10601, "Thank": 10602, " 계": 10603, " pays": 10604, "ίν": 10605, " apple": 10606, "01": 10607, "erk": 10608, "iera": 10609, " jeg": 10610, " Subscribe": 10611, " theater": 10612, " strongly": 10613, " 소": 10614, " прав": 10615, "ucky": 10616, " Jin": 10617, "kward": 10618, "건": 10619, " opponent": 10620, " SO": 10621, " holy": 10622, " filling": 10623, ":]": 10624, " hij": 10625, "М": 10626, " biss": 10627, " blend": 10628, " implic": 10629, "20ecbd": 10630, "lleicht": 10631, "ية": 10632, "asant": 10633, "erte": 10634, " Same": 10635, " interior": 10636, "Se": 10637, " bench": 10638, " poco": 10639, " marks": 10640, " wins": 10641, "喔": 10642, " γ": 10643, " distinct": 10644, " Asian": 10645, " molec": 10646, " Jackson": 10647, " east": 10648, " physics": 10649, "imal": 10650, " peak": 10651, "arian": 10652, "eps": 10653, " neat": 10654, " вас": 10655, "urning": 10656, " synth": 10657, " reveal": 10658, "ź": 10659, "gon": 10660, "nis": 10661, "ativ": 10662, " Las": 10663, " py": 10664, " Majesty": 10665, " Valley": 10666, " enf": 10667, " gens": 10668, " roots": 10669, "eze": 10670, "bet": 10671, " acts": 10672, "e99a": 10673, "e890": 10674, " philosophy": 10675, " matches": 10676, "9d69": 10677, " już": 10678, " desper": 10679, " Education": 10680, " spots": 10681, " regions": 10682, "Ar": 10683, " Nam": 10684, "een": 10685, " diagram": 10686, " rely": 10687, " tens": 10688, " dating": 10689, " coat": 10690, " Hor": 10691, " acknowledge": 10692, " Pretty": 10693, " поп": 10694, " voir": 10695, " favourite": 10696, " moż": 10697, " km": 10698, " DO": 10699, " fert": 10700, " 도": 10701, " Pac": 10702, " font": 10703, " finds": 10704, " Italy": 10705, " кол": 10706, " compass": 10707, "ebb3": 10708, "liament": 10709, " notion": 10710, " inject": 10711, " wisdom": 10712, " Ü": 10713, " Moon": 10714, " Business": 10715, "rics": 10716, " Yout": 10717, " forgive": 10718, " finance": 10719, "ilo": 10720, "أ": 10721, "ahl": 10722, " demo": 10723, " climb": 10724, " export": 10725, "e5a0": 10726, " successfully": 10727, " Fer": 10728, "pected": 10729, "dem": 10730, " retire": 10731, " laptop": 10732, " spir": 10733, " Association": 10734, " гл": 10735, " Sel": 10736, "20ed959ceb": 10737, " employee": 10738, " molt": 10739, "RL": 10740, "Я": 10741, " contra": 10742, " ug": 10743, " Ball": 10744, " Java": 10745, "érie": 10746, " procedure": 10747, " grid": 10748, "20eb8a90eb": 10749, " belt": 10750, " этого": 10751, "urd": 10752, " compreh": 10753, " developer": 10754, " этом": 10755, "e598": 10756, "cr": 10757, "20eb93": 10758, " spoken": 10759, "rence": 10760, " termin": 10761, " aggressive": 10762, " bisschen": 10763, " hasta": 10764, " Brian": 10765, " Commission": 10766, " Yu": 10767, " promised": 10768, " equity": 10769, "iko": 10770, "verty": 10771, " replaced": 10772, " Help": 10773, " pose": 10774, " Middle": 10775, " kim": 10776, " mein": 10777, " Councill": 10778, " Вс": 10779, "oro": 10780, " Bern": 10781, " bez": 10782, " analyt": 10783, "angen": 10784, " 싶": 10785, " Glo": 10786, " quad": 10787, "та": 10788, " speaks": 10789, "예요": 10790, "20ec97aceb9faceb": 10791, "free": 10792, "ні": 10793, "rich": 10794, " 미": 10795, " Dies": 10796, "abb": 10797, "a5b8": 10798, " depression": 10799, " retail": 10800, "84eb93a4": 10801, " Vous": 10802, " Latin": 10803, "e1b9": 10804, " 좋아": 10805, " tort": 10806, " computers": 10807, " searching": 10808, " tub": 10809, "atell": 10810, " merc": 10811, " glasses": 10812, "person": 10813, " dishes": 10814, " guarantee": 10815, " meg": 10816, "sm": 10817, " Walk": 10818, "으면": 10819, " folder": 10820, " Mit": 10821, " timing": 10822, " abst": 10823, " Log": 10824, "ク": 10825, " approved": 10826, " USA": 10827, "вет": 10828, " wise": 10829, "essed": 10830, " doub": 10831, " resident": 10832, " generated": 10833, " stays": 10834, " explanation": 10835, " poison": 10836, "atre": 10837, " insane": 10838, " referred": 10839, "aires": 10840, " TRA": 10841, " sei": 10842, " innoc": 10843, "Ah": 10844, " mant": 10845, "hus": 10846, " outer": 10847, "geb": 10848, "oice": 10849, " discussing": 10850, " convenient": 10851, "__": 10852, " avoir": 10853, " shapes": 10854, " gray": 10855, " dentro": 10856, " macht": 10857, " 195": 10858, "ُ": 10859, " adds": 10860, "uting": 10861, " capabilities": 10862, " sections": 10863, " tune": 10864, " Cause": 10865, "arde": 10866, " сказ": 10867, "avirus": 10868, " RE": 10869, " tuned": 10870, " leaf": 10871, "terior": 10872, " Captain": 10873, " ج": 10874, " choosing": 10875, "hin": 10876, "gging": 10877, "viet": 10878, " regret": 10879, "26": 10880, "ondern": 10881, " bonus": 10882, " Ray": 10883, "As": 10884, " torn": 10885, " Hier": 10886, " EU": 10887, " risks": 10888, " ama": 10889, " Yet": 10890, " characteristics": 10891, " 감": 10892, " Senator": 10893, " Vamos": 10894, " rose": 10895, " corporate": 10896, "ghan": 10897, " centers": 10898, "stairs": 10899, " nit": 10900, " unusual": 10901, " Tony": 10902, " GR": 10903, " Wild": 10904, " Similar": 10905, " todas": 10906, "做": 10907, " horizont": 10908, "mel": 10909, " strict": 10910, " cual": 10911, " writ": 10912, " extended": 10913, " 하는": 10914, " relief": 10915, " onion": 10916, " babies": 10917, " difer": 10918, " integrated": 10919, "üzik": 10920, "eping": 10921, "----": 10922, " mens": 10923, " strategic": 10924, "finitely": 10925, " eigentlich": 10926, "Who": 10927, "地": 10928, " {": 10929, " 你": 10930, " Tri": 10931, " pointed": 10932, "f09d": 10933, "nament": 10934, "ец": 10935, " pride": 10936, " Republican": 10937, " samples": 10938, " domestic": 10939, "LY": 10940, "vez": 10941, " webinar": 10942, "ام": 10943, " enh": 10944, " suggested": 10945, " meine": 10946, " pued": 10947, "oren": 10948, "rir": 10949, " heavily": 10950, " instruction": 10951, " microphone": 10952, " igual": 10953, " Ira": 10954, " vulnerable": 10955, " Virginia": 10956, " continuous": 10957, " poverty": 10958, " blade": 10959, "三": 10960, " relate": 10961, " cara": 10962, " Going": 10963, " regional": 10964, " Fuck": 10965, " tow": 10966, " Museum": 10967, "rants": 10968, " без": 10969, "laim": 10970, " champion": 10971, "tle": 10972, "ín": 10973, "encia": 10974, " diesem": 10975, " Dig": 10976, "mates": 10977, " investing": 10978, " Jordan": 10979, " integration": 10980, "20ed8e": 10981, "ห": 10982, "ensus": 10983, " Arch": 10984, " pencil": 10985, "ально": 10986, "issen": 10987, " Ka": 10988, " rocks": 10989, " rating": 10990, " refuge": 10991, " apr": 10992, "eted": 10993, " assistant": 10994, " meaningful": 10995, " permanent": 10996, " hill": 10997, " wszyst": 10998, " wound": 10999, " Atl": 11000, " lake": 11001, " Fort": 11002, "謝謝": 11003, " reduction": 11004, " viv": 11005, " sour": 11006, " ecos": 11007, " haz": 11008, " steal": 11009, " myster": 11010, " Как": 11011, " эти": 11012, " Vietnam": 11013, " antes": 11014, " connecting": 11015, "間": 11016, " Dave": 11017, " böyle": 11018, " Cast": 11019, "Le": 11020, " cul": 11021, " genre": 11022, "말": 11023, " complain": 11024, " hurry": 11025, "arte": 11026, "greg": 11027, " monitoring": 11028, " desert": 11029, " сов": 11030, "eling": 11031, " Supreme": 11032, " gibi": 11033, " larg": 11034, " nations": 11035, " Tok": 11036, " needle": 11037, "e6b5": 11038, " asleep": 11039, " comun": 11040, " Jews": 11041, " achieved": 11042, " exit": 11043, " diseases": 11044, "lines": 11045, "から": 11046, "riends": 11047, " rect": 11048, " scan": 11049, "はい": 11050, " hurts": 11051, "zę": 11052, " Looking": 11053, "シ": 11054, "ed92": 11055, "ultural": 11056, "ồ": 11057, "inent": 11058, " pues": 11059, " cheering": 11060, "a780": 11061, "agger": 11062, " ada": 11063, "Laughter": 11064, " Women": 11065, "裡": 11066, "e8ab": 11067, " occurred": 11068, " seats": 11069, "而": 11070, " empower": 11071, "unu": 11072, "elling": 11073, "BER": 11074, "ensional": 11075, " console": 11076, "ashing": 11077, " einmal": 11078, "fare": 11079, " 돼": 11080, " sessions": 11081, "ِ": 11082, " ridiculous": 11083, "ían": 11084, " Henry": 11085, " Hol": 11086, " collected": 11087, " discussions": 11088, "De": 11089, " disability": 11090, "20ed9b": 11091, " subscribers": 11092, " irgend": 11093, " fel": 11094, " directions": 11095, " manufacturing": 11096, " Rod": 11097, " 얘": 11098, "ท": 11099, "明": 11100, " criteria": 11101, " mold": 11102, "話": 11103, " entering": 11104, "rij": 11105, "isen": 11106, " Para": 11107, "ieve": 11108, " charged": 11109, " jou": 11110, " cats": 11111, "лед": 11112, "adays": 11113, "анов": 11114, "ję": 11115, "vation": 11116, " astron": 11117, "itals": 11118, " Brand": 11119, " Kan": 11120, " plain": 11121, " anderen": 11122, "ande": 11123, "яз": 11124, " toler": 11125, "łem": 11126, " pré": 11127, "мотр": 11128, "agement": 11129, "uct": 11130, "ché": 11131, " Ener": 11132, "ają": 11133, "20ed95b4eb": 11134, " sta": 11135, " rings": 11136, " toilet": 11137, " Cra": 11138, " experiencing": 11139, " slip": 11140, " sandwich": 11141, " Using": 11142, " spectrum": 11143, " Ros": 11144, "apse": 11145, " Jay": 11146, "му": 11147, "法": 11148, "Ex": 11149, " recognition": 11150, " Didn": 11151, "uda": 11152, "aje": 11153, "estly": 11154, " femin": 11155, "iture": 11156, "рат": 11157, " hire": 11158, " nowhere": 11159, "位": 11160, "ầ": 11161, " wing": 11162, " sav": 11163, " Security": 11164, " rural": 11165, " Fun": 11166, "ayer": 11167, " accus": 11168, " mm": 11169, " Joseph": 11170, " screens": 11171, " borrow": 11172, " swing": 11173, " 48": 11174, " touching": 11175, "this": 11176, "intendo": 11177, "e983": 11178, "Р": 11179, " Scotland": 11180, " Jason": 11181, " Ven": 11182, " exception": 11183, " nearby": 11184, " browser": 11185, "angers": 11186, " Sin": 11187, "πο": 11188, "但是": 11189, "ospel": 11190, " wurde": 11191, " drunk": 11192, "ed9a": 11193, "속": 11194, "ド": 11195, "20ec8aa4ed": 11196, " Lie": 11197, "oco": 11198, " League": 11199, " ignore": 11200, " :)": 11201, " landing": 11202, " عل": 11203, " Tag": 11204, "28": 11205, " draft": 11206, " aer": 11207, " 그냥": 11208, " pense": 11209, " даже": 11210, " bedroom": 11211, " naj": 11212, "지고": 11213, "igenous": 11214, " deals": 11215, "ello": 11216, "二": 11217, " posit": 11218, "eabb": 11219, " visited": 11220, "ifies": 11221, " premi": 11222, " cant": 11223, " Rick": 11224, " raising": 11225, " permission": 11226, " publ": 11227, "unci": 11228, " bend": 11229, " champions": 11230, "die": 11231, " awful": 11232, " jumping": 11233, " lleg": 11234, " sustainable": 11235, " Tot": 11236, " candy": 11237, "候": 11238, " satisfied": 11239, " pipe": 11240, " cock": 11241, "ض": 11242, "stone": 11243, " momentum": 11244, " На": 11245, " alors": 11246, " returns": 11247, "ammen": 11248, "e7ae": 11249, "ым": 11250, "awn": 11251, "otted": 11252, " wollen": 11253, "icted": 11254, " candidates": 11255, " Lady": 11256, " yield": 11257, " maintenance": 11258, "ffect": 11259, " expansion": 11260, " LED": 11261, " darkness": 11262, " outfit": 11263, "안": 11264, " исп": 11265, "ruption": 11266, "います": 11267, " engaging": 11268, " insight": 11269, " Always": 11270, " gef": 11271, "rak": 11272, " pix": 11273, "覺得": 11274, " quantity": 11275, " ink": 11276, " Kingdom": 11277, " cort": 11278, "常": 11279, " governments": 11280, " protest": 11281, "poon": 11282, " того": 11283, "它": 11284, "uchen": 11285, "quality": 11286, " Porque": 11287, " Club": 11288, " rit": 11289, " articles": 11290, "BI": 11291, "igible": 11292, " disaster": 11293, "иг": 11294, " ник": 11295, "ها": 11296, "를": 11297, "aret": 11298, " unable": 11299, " î": 11300, " erst": 11301, " נ": 11302, "vard": 11303, " annoying": 11304, " Kir": 11305, "ерж": 11306, "ennis": 11307, " uncertain": 11308, "36": 11309, "ös": 11310, " ecosystem": 11311, "zed": 11312, "jà": 11313, "sun": 11314, "어서": 11315, " żeby": 11316, " maps": 11317, "나": 11318, "全": 11319, " Justin": 11320, " trash": 11321, " enormous": 11322, " stated": 11323, " brands": 11324, " yout": 11325, " человек": 11326, " Matth": 11327, " transportation": 11328, " legislation": 11329, " providers": 11330, " ح": 11331, " magazine": 11332, " sehen": 11333, " Despite": 11334, " passes": 11335, "成": 11336, " alter": 11337, "adan": 11338, " farmers": 11339, "谢": 11340, " confirmed": 11341, " esa": 11342, "itos": 11343, " roads": 11344, "VIS": 11345, " worker": 11346, " designs": 11347, " Soviet": 11348, "brid": 11349, " practicing": 11350, " 부": 11351, " Sea": 11352, "ラ": 11353, " прод": 11354, " chill": 11355, " lemon": 11356, "에는": 11357, " flexible": 11358, " Excuse": 11359, " territory": 11360, "問": 11361, "み": 11362, " lux": 11363, " lifetime": 11364, " distingu": 11365, " Times": 11366, " gross": 11367, "enz": 11368, " scroll": 11369, "mış": 11370, "cip": 11371, "a3bc": 11372, "DP": 11373, " publish": 11374, " eben": 11375, " regist": 11376, " edition": 11377, " LE": 11378, " charging": 11379, "utation": 11380, "yrics": 11381, "idas": 11382, " ο": 11383, " кор": 11384, " Ton": 11385, "目": 11386, " whoever": 11387, " Fox": 11388, "手": 11389, "거든요": 11390, " fought": 11391, " drill": 11392, " Afghan": 11393, "~!": 11394, " Too": 11395, " secondary": 11396, "rä": 11397, " Head": 11398, "innen": 11399, " yarn": 11400, " нам": 11401, " width": 11402, " engineer": 11403, "ią": 11404, " wings": 11405, " 때문": 11406, " trauma": 11407, " reprodu": 11408, " chip": 11409, " passionate": 11410, " awkward": 11411, "20ed8a": 11412, "ажд": 11413, " Bitcoin": 11414, " không": 11415, " ró": 11416, "rection": 11417, " где": 11418, " Usually": 11419, " implementation": 11420, " gameplay": 11421, " mystery": 11422, " ок": 11423, " años": 11424, "andy": 11425, "ими": 11426, " privacy": 11427, "aco": 11428, "め": 11429, " dump": 11430, " Pay": 11431, " dipl": 11432, " furn": 11433, " ships": 11434, "LA": 11435, " хорош": 11436, " ec": 11437, " drops": 11438, "chl": 11439, "32": 11440, " observe": 11441, " Develop": 11442, "Müzik": 11443, "annel": 11444, "ować": 11445, " faced": 11446, "ál": 11447, " victims": 11448, " gifts": 11449, " boot": 11450, "ße": 11451, "rod": 11452, " 2009": 11453, "ört": 11454, " universal": 11455, " nouve": 11456, " boyfriend": 11457, " cetera": 11458, "ста": 11459, "'S": 11460, " nive": 11461, " crucial": 11462, " surve": 11463, " coin": 11464, " sondern": 11465, " shade": 11466, " lugar": 11467, " surely": 11468, " max": 11469, " improving": 11470, "因為": 11471, " wen": 11472, " ב": 11473, "20ec96b4ec": 11474, " enforcement": 11475, "ibl": 11476, " liv": 11477, "leri": 11478, " mejor": 11479, " Carolina": 11480, " vas": 11481, " comprom": 11482, " dirt": 11483, " upgrade": 11484, " Bell": 11485, " restaurants": 11486, " trap": 11487, " teas": 11488, "blic": 11489, " Greg": 11490, "san": 11491, " ow": 11492, "uest": 11493, " proposal": 11494, " Ret": 11495, "front": 11496, " passage": 11497, " surrounding": 11498, " últ": 11499, " upcoming": 11500, " horror": 11501, " clothing": 11502, " 약": 11503, " dil": 11504, "rome": 11505, " Id": 11506, " Road": 11507, " этот": 11508, "chain": 11509, " быть": 11510, " Offic": 11511, " Не": 11512, " insan": 11513, " decrease": 11514, " хот": 11515, "build": 11516, " Dragon": 11517, "e582": 11518, " investors": 11519, "anti": 11520, " sacrifice": 11521, " troops": 11522, " Bad": 11523, " password": 11524, " constra": 11525, "ต": 11526, " Ça": 11527, "adow": 11528, "through": 11529, "ца": 11530, "Can": 11531, " candidate": 11532, " antib": 11533, "업": 11534, " tasty": 11535, "ون": 11536, " Inf": 11537, " Bang": 11538, "ißt": 11539, "inity": 11540, "father": 11541, " controvers": 11542, " Pak": 11543, "ilty": 11544, "eab5aceb": 11545, " lighter": 11546, " fallen": 11547, " zus": 11548, " Guard": 11549, " cott": 11550, " Free": 11551, " initiative": 11552, "alous": 11553, " notification": 11554, " Medic": 11555, " Committee": 11556, "연": 11557, " Wood": 11558, " mush": 11559, "ulum": 11560, "e8b2": 11561, "ahah": 11562, " sufficient": 11563, " singer": 11564, "кой": 11565, "ALI": 11566, "ätt": 11567, " PR": 11568, " Lar": 11569, "cules": 11570, "iempo": 11571, " unex": 11572, " integral": 11573, " transmission": 11574, " ici": 11575, "ух": 11576, "gic": 11577, " Nintendo": 11578, " Cop": 11579, " Trust": 11580, "enas": 11581, " abilities": 11582, " chips": 11583, "pat": 11584, " anche": 11585, "лен": 11586, " approaches": 11587, " thor": 11588, " sisters": 11589, " drivers": 11590, " alla": 11591, "03": 11592, " rubber": 11593, " nå": 11594, "ACK": 11595, " disappear": 11596, "개": 11597, " compens": 11598, " vibr": 11599, "笑": 11600, "GO": 11601, " sizes": 11602, " tracking": 11603, "화": 11604, " 세": 11605, " impacts": 11606, "ibil": 11607, "fish": 11608, "BR": 11609, " arrow": 11610, " largely": 11611, "anny": 11612, " lawyer": 11613, "怎麼": 11614, "jours": 11615, "ں": 11616, "via": 11617, " della": 11618, " mathemat": 11619, " Mine": 11620, " Koll": 11621, "ز": 11622, " Cross": 11623, " 65": 11624, " grac": 11625, " involves": 11626, " delight": 11627, " Hollywood": 11628, " immediate": 11629, "onic": 11630, " lado": 11631, " bullet": 11632, " Note": 11633, " unlock": 11634, " discount": 11635, " rising": 11636, "press": 11637, " pace": 11638, " shorter": 11639, " tener": 11640, "geon": 11641, " managing": 11642, " cere": 11643, "Chr": 11644, "When": 11645, "achen": 11646, "20ec93": 11647, " Hun": 11648, " oft": 11649, " 250": 11650, "ierung": 11651, " stabil": 11652, " Connect": 11653, " yani": 11654, " downt": 11655, "μα": 11656, " vocal": 11657, "να": 11658, " lean": 11659, " vidéo": 11660, " Family": 11661, "resent": 11662, " amounts": 11663, "직": 11664, "class": 11665, " vib": 11666, " Av": 11667, "arse": 11668, " gentlemen": 11669, " seeking": 11670, " union": 11671, " regularly": 11672, "e68f": 11673, " Jahr": 11674, " Food": 11675, " Problem": 11676, " artificial": 11677, " Six": 11678, " impressed": 11679, " tooth": 11680, " Kh": 11681, " yard": 11682, " 해": 11683, " owned": 11684, " 동": 11685, "청": 11686, " toda": 11687, " portfol": 11688, " 남": 11689, "orgeous": 11690, " dates": 11691, "ольз": 11692, "ечно": 11693, " configuration": 11694, " requirement": 11695, " belly": 11696, " painful": 11697, " demonstrate": 11698, " gleich": 11699, " visiting": 11700, " Conf": 11701, " dal": 11702, "ّ": 11703, " amend": 11704, " Fur": 11705, "比": 11706, " vital": 11707, "ị": 11708, " mate": 11709, " Ou": 11710, " legacy": 11711, "usting": 11712, " accommod": 11713, " quoi": 11714, "auen": 11715, " lifestyle": 11716, "CC": 11717, "ään": 11718, "arten": 11719, " minha": 11720, "ró": 11721, " 모": 11722, " formation": 11723, " trailer": 11724, "peror": 11725, " гр": 11726, " ud": 11727, "zu": 11728, " kommen": 11729, " cave": 11730, " Councillor": 11731, " thrown": 11732, " tricks": 11733, "LAUGHTER": 11734, " Academy": 11735, "rowd": 11736, "a19d": 11737, "저": 11738, " Imagine": 11739, " informed": 11740, "roph": 11741, " lig": 11742, " skull": 11743, "abeth": 11744, " functional": 11745, "erek": 11746, "On": 11747, "e9a6": 11748, " ancest": 11749, " safely": 11750, " HT": 11751, "당": 11752, " dav": 11753, " drives": 11754, "Americ": 11755, " tire": 11756, " sais": 11757, "ári": 11758, "avors": 11759, " corresponding": 11760, " prés": 11761, "chest": 11762, " bacteria": 11763, " infection": 11764, "usal": 11765, " avez": 11766, " basketball": 11767, " supplies": 11768, " expertise": 11769, "a0a5": 11770, " tiempo": 11772, " Want": 11773, " silly": 11774, " upp": 11775, " elected": 11776, " fired": 11777, " د": 11778, " universities": 11779, "alle": 11780, " jacket": 11781, "°": 11782, " trav": 11783, "ls": 11784, " defeat": 11785, " cogn": 11786, " equations": 11787, "uki": 11788, " Sher": 11789, " thirty": 11790, " streaming": 11791, "otros": 11792, " Produ": 11793, "nej": 11794, " designer": 11795, "20eb8a90eb82": 11796, " painted": 11797, "raine": 11798, "mail": 11799, " vess": 11800, " rhythm": 11801, "lesh": 11802, " 99": 11803, " ainda": 11804, "chied": 11805, " était": 11806, " affects": 11807, "e9a3": 11808, " Find": 11809, " él": 11810, " potatoes": 11811, " pag": 11812, " пар": 11813, "arts": 11814, " Nach": 11815, " 33": 11816, " Hard": 11817, " Iraq": 11818, " opinions": 11819, "with": 11820, "erman": 11821, "ý": 11822, "e8ad": 11823, " SPEAK": 11824, "acbc": 11825, " stability": 11826, " HE": 11827, " captured": 11828, " bucks": 11829, " masks": 11830, " compete": 11831, " forgotten": 11832, "люч": 11833, "sequ": 11834, " 선": 11835, "illion": 11836, " graphics": 11837, " hub": 11838, " 연": 11839, "empor": 11840, " crown": 11841, " wider": 11842, " occurs": 11843, "DS": 11844, "e681": 11845, " Battle": 11846, "なん": 11847, " dual": 11848, " 600": 11849, "athers": 11850, "แ": 11851, " settle": 11852, " avait": 11853, " dois": 11854, "ких": 11855, "adores": 11856, " ó": 11857, "nego": 11858, " Georgia": 11859, " Rog": 11860, " divor": 11861, " Song": 11862, " Special": 11863, " mun": 11864, " pretend": 11865, "MAN": 11866, " violent": 11867, " besides": 11868, "vy": 11869, " Naz": 11870, "29": 11871, " sweat": 11872, " zw": 11873, " Hu": 11874, " Build": 11875, " horm": 11876, " Card": 11877, " 유": 11878, " recommendation": 11879, "called": 11880, "stick": 11881, " Police": 11882, " consumers": 11883, " grocer": 11884, " stun": 11885, " Вы": 11886, "У": 11887, " Data": 11888, " substant": 11889, "irect": 11890, "e0b2": 11891, " вз": 11892, " Arm": 11893, " semester": 11894, " Brad": 11895, " ours": 11896, " который": 11897, "a761": 11898, " grams": 11899, " exercises": 11900, "75": 11901, " swear": 11902, " incent": 11903, "ρο": 11904, " illegal": 11905, "何": 11906, " Damn": 11907, " nú": 11908, " neces": 11909, " cuz": 11910, "icon": 11911, " hors": 11912, " Como": 11913, "作": 11914, " 두": 11915, " overse": 11916, " harvest": 11917, " threw": 11918, " потому": 11919, "יה": 11920, " otro": 11921, " перв": 11922, " scope": 11923, " glory": 11924, " Michigan": 11925, " assuming": 11926, " уд": 11927, " bold": 11928, "gue": 11929, "mother": 11930, " waren": 11931, "講": 11932, " إ": 11933, " Kam": 11934, "ispiel": 11935, " toujours": 11936, " constitution": 11937, " ~": 11938, " frankly": 11939, "olen": 11940, "onscious": 11941, " würde": 11942, "thon": 11943, " OF": 11944, "ec9e90eb": 11945, "unda": 11946, " 是": 11947, " пор": 11948, " employment": 11949, "ёт": 11950, "ぁ": 11951, " steam": 11952, " DI": 11953, " professionals": 11954, " engineers": 11955, " Xia": 11956, "e7ab": 11957, "영": 11958, " Dun": 11959, " bitch": 11960, " Ford": 11961, "不要": 11962, "section": 11963, " vice": 11964, " Later": 11965, "oston": 11966, "эт": 11967, "צ": 11968, " Azure": 11969, "pling": 11970, " 180": 11971, " Creat": 11972, "ISHA": 11973, " bueno": 11974, "희": 11975, "rup": 11976, "lers": 11977, " Yang": 11978, " HA": 11979, "bat": 11980, " Catholic": 11981, " accent": 11982, " mixing": 11983, "ckets": 11984, " enhance": 11985, "ühr": 11986, "ês": 11987, "20ed96": 11988, " swimming": 11989, " của": 11990, " Eliz": 11991, " immune": 11992, " бол": 11993, " fare": 11994, " Gab": 11995, "ס": 11996, " satell": 11997, " Anything": 11998, " asset": 11999, " schedul": 12000, " radical": 12001, " zwei": 12002, " ME": 12003, "related": 12004, " separated": 12005, " Libr": 12006, " grip": 12007, " ப": 12008, "言": 12009, " beans": 12010, " Op": 12011, "소": 12012, " pound": 12013, " entrance": 12014, "φ": 12015, " Nie": 12016, " Republicans": 12017, " atom": 12018, " personas": 12019, " Ali": 12020, "ähr": 12021, "外": 12022, " dramatic": 12023, " Fine": 12024, " reminds": 12025, "e899": 12026, " déjà": 12027, " affordable": 12028, " bran": 12029, "iero": 12030, "alar": 12031, "cu": 12032, " \\": 12033, " może": 12034, " blast": 12035, " recy": 12036, "fire": 12037, " lle": 12038, " время": 12039, " WW": 12040, " vs": 12041, " Dude": 12042, " Rome": 12043, " greet": 12044, " Het": 12045, "cias": 12046, " 당": 12047, "lessly": 12048, " premium": 12049, " experiments": 12050, "atar": 12051, "éri": 12052, " officially": 12053, " fee": 12054, "็": 12055, " чем": 12056, "rea": 12057, " toy": 12058, "OP": 12059, " Taylor": 12060, " McC": 12061, "iley": 12062, " Bak": 12063, " alum": 12064, " Unter": 12065, " magical": 12066, " trabal": 12067, " votes": 12068, "itage": 12069, " mechanical": 12070, "hn": 12071, "ました": 12072, " интер": 12073, "今天": 12074, " hint": 12075, " authorities": 12076, " NASA": 12077, "iversary": 12078, " поч": 12079, "rac": 12080, " SPEAKER": 12081, "öt": 12082, " frames": 12083, " goodbye": 12084, " cher": 12085, "hu": 12086, " neur": 12087, "定": 12088, " Mach": 12089, " Hell": 12090, " festival": 12091, "년": 12092, "uta": 12093, " mushroom": 12094, " tant": 12095, " tatto": 12096, " delete": 12097, " diz": 12098, " vä": 12099, " sevent": 12100, " Quick": 12101, " baking": 12102, " assembly": 12103, "Go": 12104, " Dream": 12105, " Lad": 12106, "非": 12107, "ây": 12108, "ags": 12109, " gravity": 12110, " 집": 12111, "employ": 12112, " dieses": 12113, " discovery": 12114, "ства": 12115, " hebben": 12116, " gerade": 12117, " DR": 12118, " ''": 12119, " technically": 12120, " По": 12121, " privilege": 12122, " Ever": 12123, " Services": 12124, "uran": 12125, " consumption": 12126, " Rev": 12127, " Shall": 12128, "asser": 12129, "b680ed84b0": 12130, " racial": 12131, " Youtube": 12132, " Pra": 12133, "ствен": 12134, "cek": 12135, "e6b4": 12136, "asha": 12137, " ہ": 12138, "919c": 12139, "ahn": 12140, "ICK": 12141, " drinks": 12142, " carb": 12143, "タ": 12144, " 64": 12145, " Mmm": 12146, " electrical": 12147, " fruits": 12148, " HD": 12149, "ña": 12150, " Definitely": 12151, " 받": 12152, " fais": 12153, "rations": 12154, " coe": 12155, "ahu": 12156, " Fair": 12157, " eaten": 12158, " fir": 12159, " Au": 12160, "ун": 12161, "ulating": 12162, "ingly": 12163, " vaccines": 12164, " dragon": 12165, " pointing": 12166, " pelo": 12167, "orters": 12168, " workout": 12169, "имер": 12170, "mond": 12171, " Nope": 12172, " זה": 12173, " ق": 12174, " adopted": 12175, "bul": 12176, " sans": 12177, " possibilities": 12178, " pend": 12179, " zaman": 12180, "hou": 12181, " shares": 12182, " calendar": 12183, " persona": 12184, " seal": 12185, " gene": 12186, " stored": 12187, " поз": 12188, " lyrics": 12189, " instruments": 12190, " MA": 12191, "80ec9db4": 12192, " clouds": 12193, "hot": 12194, "ắ": 12195, " 같아요": 12196, " Empire": 12197, " bio": 12198, "wind": 12199, "iego": 12200, " Europ": 12201, " 好": 12202, "edge": 12203, " backwards": 12204, "20eca780eb": 12205, " queen": 12206, " shine": 12207, " çık": 12208, " cad": 12209, " Od": 12210, " 사람": 12211, " bubble": 12212, "ôi": 12213, "zes": 12214, " reactions": 12215, " judgment": 12216, " Democrats": 12217, " cosas": 12218, "ashed": 12219, " долж": 12220, "śnie": 12221, "eab4": 12222, " exemple": 12223, "MP": 12224, "ữ": 12225, " Vers": 12226, " resil": 12227, " má": 12228, "ńst": 12229, "believ": 12230, " Vor": 12231, " scheme": 12232, "onda": 12233, " podemos": 12234, " charges": 12235, " destination": 12236, " Ky": 12237, " SS": 12238, " silence": 12239, " embed": 12240, "nat": 12241, "ới": 12242, "ANT": 12243, "gged": 12244, " reducing": 12245, " ugly": 12246, " mim": 12247, "уда": 12248, "34": 12249, " cord": 12250, " тоже": 12251, " Lisa": 12252, " ön": 12253, " Christians": 12254, "umbles": 12255, "ologists": 12256, "aza": 12257, " tends": 12258, " Cook": 12259, " gesagt": 12260, " 하나": 12261, " Tes": 12262, "eremony": 12263, " нужно": 12264, " MARISHA": 12265, " enroll": 12266, " Cry": 12267, "ESS": 12268, " Sad": 12269, " implemented": 12270, " día": 12271, "Ü": 12272, " pist": 12273, "Dr": 12274, " sabe": 12275, " Soci": 12276, "äre": 12277, " кто": 12278, " Francisco": 12279, " 장": 12280, " creatures": 12281, "aws": 12282, " earned": 12283, " cheaper": 12284, " dla": 12285, " warn": 12286, "sche": 12287, " blah": 12288, " nutr": 12289, "e8bc": 12290, " gorgeous": 12291, " Angeles": 12292, " gemacht": 12293, " homeless": 12294, "ographic": 12295, " Taiwan": 12296, " Som": 12297, " Had": 12298, "actions": 12299, " posts": 12300, " outra": 12301, " Mean": 12302, "kar": 12303, " cous": 12304, " brack": 12305, "иться": 12306, " believes": 12307, " suicide": 12308, " equally": 12309, " cares": 12310, "ожно": 12311, " stem": 12312, " Much": 12313, " producer": 12314, "וא": 12315, " protecting": 12316, " TRAVIS": 12317, " interviews": 12318, " alien": 12319, " Ask": 12320, " sole": 12321, "CO": 12322, " Sud": 12323, " surviv": 12324, " sketch": 12325, " wła": 12326, " coloc": 12327, " apologize": 12328, "weight": 12329, " 55": 12330, " >": 12331, " heroes": 12332, " Boston": 12333, " dependent": 12334, " motivation": 12335, "flix": 12336, " seam": 12337, "кие": 12338, " drain": 12339, "oded": 12340, " guilty": 12341, " Jenn": 12342, "ingen": 12343, " granted": 12344, " Kelly": 12345, " Sav": 12346, " Uncle": 12347, " Honestly": 12348, "ELI": 12349, " navigate": 12350, " blessed": 12351, "core": 12352, " earning": 12353, " signals": 12354, " disk": 12355, "ials": 12356, " ages": 12357, "e685": 12358, " particle": 12359, " чер": 12360, " cann": 12361, " tier": 12362, " statements": 12363, "고요": 12364, " 때문에": 12365, " Cho": 12366, " polar": 12367, "anç": 12368, " Kenn": 12369, " Ni": 12370, " Fight": 12371, "organ": 12372, "e995": 12373, " Cha": 12374, " Sí": 12375, "リ": 12376, " slic": 12377, " certific": 12378, " template": 12379, " Federal": 12380, " consideration": 12381, " explo": 12382, " Main": 12383, " NE": 12384, " alongside": 12385, " dressed": 12386, " Point": 12387, " environments": 12388, " próxim": 12389, " daar": 12390, " prompt": 12391, " pursue": 12392, " entertainment": 12393, " throat": 12394, " problema": 12395, " mart": 12396, "ecbc": 12397, " provider": 12398, "،": 12399, " ח": 12400, "inte": 12401, "making": 12402, " stroke": 12403, " tissue": 12404, "Un": 12405, " precious": 12406, " Arts": 12407, "inking": 12408, " Он": 12409, " ис": 12410, "nah": 12411, " Если": 12412, " corners": 12413, " tricky": 12414, "inch": 12415, "lijk": 12416, " pressing": 12417, "level": 12418, "ANG": 12419, " radiation": 12420, "선": 12421, " confront": 12422, " vet": 12423, " representative": 12424, " propag": 12425, " crap": 12426, " Dec": 12427, " ramp": 12428, "еперь": 12429, "ués": 12430, "essen": 12431, "cription": 12432, " bills": 12433, " Matthew": 12434, " anime": 12435, "ất": 12436, " lowest": 12437, "has": 12438, "screen": 12439, "ograp": 12440, "ало": 12441, "inton": 12442, " Jah": 12443, "者": 12444, "ità": 12445, " kay": 12446, " rotation": 12447, " Were": 12448, "abei": 12449, " trials": 12450, " lever": 12451, "ighty": 12452, " spoon": 12453, " hunt": 12454, "cling": 12455, " dism": 12456, " больш": 12457, " assault": 12458, " 형": 12459, " weekly": 12460, " mismo": 12461, " genetic": 12462, "ulpt": 12463, " Student": 12464, " realistic": 12465, " authentic": 12466, "打": 12467, "asta": 12468, " arrested": 12469, " guidelines": 12470, " לא": 12471, " дав": 12472, " Coming": 12473, "für": 12474, " requests": 12475, "8390": 12476, " analyze": 12477, " interess": 12478, " halt": 12479, " Oper": 12480, "onom": 12481, " duck": 12482, " withd": 12483, "ser": 12484, " ό": 12485, " History": 12486, " youtube": 12487, "ろ": 12488, " saber": 12489, "walk": 12490, "font": 12491, " overview": 12492, "39": 12493, "üy": 12494, "etti": 12495, " frozen": 12496, " flesh": 12497, "ği": 12498, " PM": 12499, " 와": 12500, "e9a2": 12501, "ции": 12502, "20eab8b0eb": 12503, "크": 12504, " prose": 12505, "oooo": 12506, "rates": 12507, "WS": 12508, " automatic": 12509, " collecting": 12510, "ő": 12511, " neighbors": 12512, "».": 12513, " Expl": 12514, " circul": 12515, "cover": 12516, "weg": 12517, " sticks": 12518, " eller": 12519, " www": 12520, " dorm": 12521, " Exper": 12522, " statistics": 12523, " emails": 12524, " grave": 12525, "imiz": 12526, "HS": 12527, " uit": 12528, ",'": 12529, " laser": 12530, "e889": 12531, " тем": 12532, "ыш": 12533, "щё": 12534, " genau": 12535, " tienen": 12536, " meditation": 12537, " Organ": 12538, " estimate": 12539, "20ebacb4ec": 12540, "lets": 12541, " này": 12542, " mindset": 12543, " reson": 12544, " més": 12545, " numerous": 12546, " vielleicht": 12547, " Third": 12548, "uous": 12549, " Dead": 12550, "анд": 12551, "HN": 12552, " racing": 12553, " agents": 12554, " Ut": 12555, " tear": 12556, " HP": 12557, " chemistry": 12558, " survival": 12559, "新": 12560, " convinced": 12561, " ;": 12562, " regulations": 12563, " ES": 12564, "和": 12565, "300": 12566, " ense": 12567, "20ecb5": 12568, " dict": 12569, "GA": 12570, " ahí": 12571, "動": 12572, " tej": 12573, " ост": 12574, " Elect": 12575, " intellectual": 12576, " bias": 12577, " burden": 12578, "点": 12579, " 어떻": 12580, " cheer": 12581, " soph": 12582, " portfolio": 12583, "uba": 12584, " estos": 12585, "TV": 12586, "For": 12587, " ash": 12588, " kommer": 12589, " collective": 12590, " wrest": 12591, " Jetzt": 12592, " Wat": 12593, "reich": 12594, " primer": 12595, "active": 12596, " mie": 12597, "icked": 12598, " hunting": 12599, " testim": 12600, " compassion": 12601, " ر": 12602, " brut": 12603, " salad": 12604, "обще": 12605, " solving": 12606, " floating": 12607, "e7b7": 12608, " attractive": 12609, "ول": 12610, " perd": 12611, "iffer": 12612, " sculpt": 12613, "hhh": 12614, " Week": 12615, " enthus": 12616, " nad": 12617, " merch": 12618, " 확": 12619, " mile": 12620, "好了": 12621, " θ": 12622, "20eb8298eb": 12623, "重": 12624, "38": 12625, " chains": 12626, " Almost": 12627, " tickets": 12628, "rin": 12629, " CC": 12630, " distributed": 12631, "abetes": 12632, " temperatures": 12633, " gained": 12634, " flexibility": 12635, " screaming": 12636, " abroad": 12637, "uno": 12638, " entrepreneurs": 12639, " Network": 12640, " Canadian": 12641, " prev": 12642, " sö": 12643, " тебя": 12644, " Poke": 12645, " Pod": 12646, " Turkey": 12647, "現在": 12648, " abstract": 12649, " snake": 12650, " Amy": 12651, " 느낌": 12652, " brave": 12653, " 있어요": 12654, " Kal": 12655, " 2007": 12656, "ário": 12657, " marked": 12658, "gines": 12659, " alloc": 12660, "ONG": 12661, " scientist": 12662, " esca": 12663, " racism": 12664, "d791d7": 12665, " Sams": 12666, " Penn": 12667, " loads": 12668, " ந": 12669, "über": 12670, "Me": 12671, "ixò": 12672, " però": 12673, "anne": 12674, " expressed": 12675, "мер": 12676, " moet": 12677, " returning": 12678, "nia": 12679, " expon": 12680, "Pro": 12681, " loyal": 12682, "ML": 12683, " lamp": 12684, " shy": 12685, " composition": 12686, " Ly": 12687, " magnetic": 12688, " premier": 12689, " measured": 12690, " summary": 12691, " attacked": 12692, " finishing": 12693, "З": 12694, "e7a5": 12695, " sits": 12696, " hydrogen": 12697, " mai": 12698, " Deutsch": 12699, "ası": 12700, " obtain": 12701, "vie": 12702, " soit": 12703, " 바": 12704, " lane": 12705, " consegu": 12706, "во": 12707, " ease": 12708, "akin": 12709, " Fa": 12710, " untuk": 12711, " burst": 12712, " cum": 12713, "alım": 12714, "úblic": 12715, "idi": 12716, " Royal": 12717, " Kon": 12718, " commonly": 12719, " removing": 12720, " jur": 12721, "ilib": 12722, " anch": 12723, "행": 12724, "ượ": 12725, " Мы": 12726, " Anth": 12727, " Så": 12728, " interrupt": 12729, " stere": 12730, " OS": 12731, "onym": 12732, "tery": 12733, " Maria": 12734, "것": 12735, " exploring": 12736, " transparent": 12737, " fate": 12738, " Jung": 12739, " grup": 12740, " darker": 12741, " Doug": 12742, " mane": 12743, "放": 12744, "ại": 12745, "dri": 12746, "look": 12747, " Design": 12748, " tutaj": 12749, " horizontal": 12750, "reon": 12751, "orte": 12752, " Correct": 12753, " Steven": 12754, " vine": 12755, "02": 12756, "ić": 12757, " siempre": 12758, " Key": 12759, "像": 12760, " Games": 12761, " naar": 12762, " shocked": 12763, "elve": 12764, " Rose": 12765, "심": 12766, " stopping": 12767, "ohl": 12768, " Mix": 12769, " suffered": 12770, " sigma": 12771, " weakness": 12772, " Ow": 12773, "ี่": 12774, "IF": 12775, " அ": 12776, "aded": 12777, " Netflix": 12778, "anes": 12779, " remained": 12780, "iry": 12781, " rip": 12782, "ellt": 12783, " silent": 12784, " proven": 12785, " toxic": 12786, " alumin": 12787, " multipl": 12788, "aland": 12789, " 34": 12790, "06": 12791, " Bru": 12792, " 정말": 12793, "Just": 12794, "boy": 12795, " shoe": 12796, " creature": 12797, " headed": 12798, " отк": 12799, "e6b1": 12800, " essence": 12801, " remarkable": 12802, " númer": 12803, " drew": 12804, " puzzle": 12805, " Library": 12806, " Fu": 12807, "ashes": 12808, "kk": 12809, " Ist": 12810, "a6b0": 12811, " Bry": 12812, " ceremony": 12813, " எ": 12814, " cri": 12815, "equ": 12816, "ア": 12817, " prize": 12818, " dimensions": 12819, "ogram": 12820, " leather": 12821, " populations": 12822, "uum": 12823, " vegan": 12824, "яд": 12825, " cómo": 12826, "e584": 12827, " strip": 12828, "e5a3": 12829, " vacation": 12830, "8595": 12831, " meals": 12832, "ilipp": 12833, " ents": 12834, "aram": 12835, "richt": 12836, " grain": 12837, " Spain": 12838, " cheek": 12839, " Aff": 12840, "ION": 12841, " Bring": 12842, " 38": 12843, "ielen": 12844, "ulu": 12845, " больше": 12846, " announcement": 12847, " тут": 12848, " Prophet": 12849, "ardo": 12850, "37": 12851, " woke": 12852, " translation": 12853, " NOT": 12854, " CL": 12855, " düş": 12856, "ці": 12857, "acer": 12858, " Loc": 12859, " perception": 12860, "NO": 12861, " diesen": 12862, "Look": 12863, "heart": 12864, "aved": 12865, " boundary": 12866, " flows": 12867, "ём": 12868, " arguments": 12869, " elections": 12870, "ıs": 12871, " heck": 12872, " suitable": 12873, " fiber": 12874, " Stra": 12875, "xy": 12876, " Hum": 12877, " monthly": 12878, "uper": 12879, " golf": 12880, " lately": 12881, " Gard": 12882, " Ren": 12883, " Ast": 12884, " Fant": 12885, "асс": 12886, " obser": 12887, "로": 12888, " easiest": 12889, "8d94eb": 12890, " websites": 12891, "pol": 12892, " cocon": 12893, " இ": 12894, " Veg": 12895, " walks": 12896, " intro": 12897, " directed": 12898, " Anna": 12899, " 들어": 12900, " Eastern": 12901, " Saint": 12902, " Bow": 12903, " roast": 12904, " URL": 12905, " jeden": 12906, "uras": 12907, "aja": 12908, " semi": 12909, " rapidly": 12910, " targets": 12911, " Control": 12912, " bah": 12913, " reflection": 12914, " creativity": 12915, "holders": 12916, "20ec98aceb": 12917, " amongst": 12918, " feeding": 12919, "этому": 12920, " виде": 12921, " 만들": 12922, " Smart": 12923, " reliable": 12924, " vezes": 12925, " ר": 12926, "chuckles": 12927, "azione": 12928, " Williams": 12929, " aç": 12930, " slee": 12931, "ещ": 12932, " timeline": 12933, " thorough": 12934, "ọ": 12935, " Ot": 12936, "ạn": 12937, " imagination": 12938, " mechanics": 12939, "rist": 12940, " claimed": 12941, "τη": 12942, "ête": 12943, " Hurry": 12944, " iPad": 12945, " constru": 12946, " Cla": 12947, " Als": 12948, "会": 12949, "utz": 12950, " cultures": 12951, " 어떻게": 12952, " belongs": 12953, " yer": 12954, " Doesn": 12955, " geomet": 12956, " bid": 12957, " foam": 12958, " hob": 12959, " Britain": 12960, " substance": 12961, " anniversary": 12962, " 너": 12963, " noted": 12964, " governor": 12965, " stocks": 12966, "31": 12967, " diye": 12968, "ec8aa4eb": 12969, " reb": 12970, "zel": 12971, " multiply": 12972, " operator": 12973, "84a4ec9a94": 12974, " waters": 12975, " där": 12976, " unser": 12977, " Elizabeth": 12978, "高": 12979, " increasingly": 12980, " Gro": 12981, " engines": 12982, "irs": 12983, "ث": 12984, " treasure": 12985, "PC": 12986, "inction": 12987, "iri": 12988, " accum": 12989, " variation": 12990, " pom": 12991, " titles": 12992, " Fest": 12993, "ós": 12994, " elder": 12995, "nym": 12996, "run": 12997, "яв": 12998, " innovative": 12999, " nombre": 13000, " coinc": 13001, " franch": 13002, " entonces": 13003, " nichts": 13004, " exclusive": 13005, " Cheers": 13006, " Bi": 13007, "uje": 13008, "歡": 13009, " pok": 13010, " Prem": 13011, " rocket": 13012, "ELIPE": 13013, " hospitals": 13014, "rium": 13015, " juste": 13016, " hammer": 13017, " quantum": 13018, " responses": 13019, "lly": 13020, "endi": 13021, " actively": 13022, " fridge": 13023, "iate": 13024, "long": 13025, " quem": 13026, " deaths": 13027, " superior": 13028, "cken": 13029, "이에": 13030, "ktop": 13031, " gathered": 13032, "a3a8": 13033, " dazu": 13034, " recipes": 13035, " buzz": 13036, "cen": 13037, " anytime": 13038, "onsense": 13039, " circles": 13040, " solved": 13041, " 신": 13042, " coronavirus": 13043, " Luke": 13044, " bubb": 13045, " contempor": 13046, "rzy": 13047, " Jane": 13048, " дом": 13049, " screws": 13050, " hybrid": 13051, " casual": 13052, " selbst": 13053, "being": 13054, " Đ": 13055, " Columb": 13056, " хоч": 13057, " bucket": 13058, " evaluate": 13059, " idol": 13060, " reputation": 13061, "20ec868ceb": 13062, "ور": 13063, " hecho": 13064, " poem": 13065, " subjects": 13066, "plant": 13067, " Beh": 13068, " Speaking": 13069, " batteries": 13070, " followers": 13071, "öl": 13072, " gently": 13073, " sixt": 13074, " parameter": 13075, " ikke": 13076, " Tour": 13077, " DJ": 13078, "otte": 13079, " Jahren": 13080, " preparation": 13081, " дум": 13082, " 800": 13083, "cop": 13084, "iking": 13085, " 문": 13086, " ну": 13087, " лет": 13088, "同": 13089, " Ide": 13090, " 조금": 13091, " laughter": 13092, " molecules": 13093, " Rest": 13094, " observed": 13095, "dzie": 13096, " advertising": 13097, "erto": 13098, " moins": 13099, " MIT": 13100, " excit": 13101, " tum": 13102, " tyl": 13103, " invested": 13104, " pharm": 13105, " unexpected": 13106, " phi": 13107, "otype": 13108, "weise": 13109, " geç": 13110, "jourd": 13111, " horses": 13112, "ną": 13113, "=\"": 13114, " SM": 13115, " fib": 13116, " clips": 13117, "當": 13118, "如果": 13119, " regime": 13120, " rotate": 13121, "rou": 13122, "nik": 13123, " armor": 13124, "f09f98": 13125, "ера": 13126, "度": 13127, " Och": 13128, " richtig": 13129, "üzel": 13130, "aneously": 13131, "mek": 13132, "錯": 13133, " Xiao": 13134, " existed": 13135, "worth": 13136, "っと": 13137, " naught": 13138, " heißt": 13139, " Bal": 13140, " resid": 13141, "ivot": 13142, "omatic": 13143, " hired": 13144, " gradually": 13145, " onions": 13146, " compat": 13147, " intim": 13148, " jew": 13149, " contribution": 13150, " Ire": 13151, "acji": 13152, " slice": 13153, " immun": 13154, " Rus": 13155, " grows": 13156, " Similarly": 13157, " hardest": 13158, " struck": 13159, " measurement": 13160, "...]": 13161, "they": 13162, "20eca080eb": 13163, " sneak": 13164, " applies": 13165, " нем": 13166, "e693": 13167, "בר": 13168, " Что": 13169, " outro": 13170, " innocent": 13171, " mog": 13172, " Samsung": 13173, " mercy": 13174, " handling": 13175, " intervention": 13176, "idays": 13177, "got": 13178, " curric": 13179, " boundaries": 13180, " confusing": 13181, "9dbceb8a94": 13182, "e687": 13183, " stitches": 13184, "ível": 13185, " tunnel": 13186, "itä": 13187, " gost": 13188, "imy": 13189, " czas": 13190, " mé": 13191, " catal": 13192, " Simon": 13193, " LIAM": 13194, "mic": 13195, " Ф": 13196, " eyel": 13197, "isas": 13198, " CPU": 13199, " Dou": 13200, " näch": 13201, " infinity": 13202, " rif": 13203, " Peace": 13204, " Cu": 13205, " minimal": 13206, " listened": 13207, " pole": 13208, "halb": 13209, " loaded": 13210, " steady": 13211, " Besides": 13212, "êm": 13213, " lap": 13214,
[...]
